<unk>	0
<s>	0
</s>	0
<0x00>	0
<0x01>	0
<0x02>	0
<0x03>	0
<0x04>	0
<0x05>	0
<0x06>	0
<0x07>	0
<0x08>	0
<0x09>	0
<0x0A>	0
<0x0B>	0
<0x0C>	0
<0x0D>	0
<0x0E>	0
<0x0F>	0
<0x10>	0
<0x11>	0
<0x12>	0
<0x13>	0
<0x14>	0
<0x15>	0
<0x16>	0
<0x17>	0
<0x18>	0
<0x19>	0
<0x1A>	0
<0x1B>	0
<0x1C>	0
<0x1D>	0
<0x1E>	0
<0x1F>	0
<0x20>	0
<0x21>	0
<0x22>	0
<0x23>	0
<0x24>	0
<0x25>	0
<0x26>	0
<0x27>	0
<0x28>	0
<0x29>	0
<0x2A>	0
<0x2B>	0
<0x2C>	0
<0x2D>	0
<0x2E>	0
<0x2F>	0
<0x30>	0
<0x31>	0
<0x32>	0
<0x33>	0
<0x34>	0
<0x35>	0
<0x36>	0
<0x37>	0
<0x38>	0
<0x39>	0
<0x3A>	0
<0x3B>	0
<0x3C>	0
<0x3D>	0
<0x3E>	0
<0x3F>	0
<0x40>	0
<0x41>	0
<0x42>	0
<0x43>	0
<0x44>	0
<0x45>	0
<0x46>	0
<0x47>	0
<0x48>	0
<0x49>	0
<0x4A>	0
<0x4B>	0
<0x4C>	0
<0x4D>	0
<0x4E>	0
<0x4F>	0
<0x50>	0
<0x51>	0
<0x52>	0
<0x53>	0
<0x54>	0
<0x55>	0
<0x56>	0
<0x57>	0
<0x58>	0
<0x59>	0
<0x5A>	0
<0x5B>	0
<0x5C>	0
<0x5D>	0
<0x5E>	0
<0x5F>	0
<0x60>	0
<0x61>	0
<0x62>	0
<0x63>	0
<0x64>	0
<0x65>	0
<0x66>	0
<0x67>	0
<0x68>	0
<0x69>	0
<0x6A>	0
<0x6B>	0
<0x6C>	0
<0x6D>	0
<0x6E>	0
<0x6F>	0
<0x70>	0
<0x71>	0
<0x72>	0
<0x73>	0
<0x74>	0
<0x75>	0
<0x76>	0
<0x77>	0
<0x78>	0
<0x79>	0
<0x7A>	0
<0x7B>	0
<0x7C>	0
<0x7D>	0
<0x7E>	0
<0x7F>	0
<0x80>	0
<0x81>	0
<0x82>	0
<0x83>	0
<0x84>	0
<0x85>	0
<0x86>	0
<0x87>	0
<0x88>	0
<0x89>	0
<0x8A>	0
<0x8B>	0
<0x8C>	0
<0x8D>	0
<0x8E>	0
<0x8F>	0
<0x90>	0
<0x91>	0
<0x92>	0
<0x93>	0
<0x94>	0
<0x95>	0
<0x96>	0
<0x97>	0
<0x98>	0
<0x99>	0
<0x9A>	0
<0x9B>	0
<0x9C>	0
<0x9D>	0
<0x9E>	0
<0x9F>	0
<0xA0>	0
<0xA1>	0
<0xA2>	0
<0xA3>	0
<0xA4>	0
<0xA5>	0
<0xA6>	0
<0xA7>	0
<0xA8>	0
<0xA9>	0
<0xAA>	0
<0xAB>	0
<0xAC>	0
<0xAD>	0
<0xAE>	0
<0xAF>	0
<0xB0>	0
<0xB1>	0
<0xB2>	0
<0xB3>	0
<0xB4>	0
<0xB5>	0
<0xB6>	0
<0xB7>	0
<0xB8>	0
<0xB9>	0
<0xBA>	0
<0xBB>	0
<0xBC>	0
<0xBD>	0
<0xBE>	0
<0xBF>	0
<0xC0>	0
<0xC1>	0
<0xC2>	0
<0xC3>	0
<0xC4>	0
<0xC5>	0
<0xC6>	0
<0xC7>	0
<0xC8>	0
<0xC9>	0
<0xCA>	0
<0xCB>	0
<0xCC>	0
<0xCD>	0
<0xCE>	0
<0xCF>	0
<0xD0>	0
<0xD1>	0
<0xD2>	0
<0xD3>	0
<0xD4>	0
<0xD5>	0
<0xD6>	0
<0xD7>	0
<0xD8>	0
<0xD9>	0
<0xDA>	0
<0xDB>	0
<0xDC>	0
<0xDD>	0
<0xDE>	0
<0xDF>	0
<0xE0>	0
<0xE1>	0
<0xE2>	0
<0xE3>	0
<0xE4>	0
<0xE5>	0
<0xE6>	0
<0xE7>	0
<0xE8>	0
<0xE9>	0
<0xEA>	0
<0xEB>	0
<0xEC>	0
<0xED>	0
<0xEE>	0
<0xEF>	0
<0xF0>	0
<0xF1>	0
<0xF2>	0
<0xF3>	0
<0xF4>	0
<0xF5>	0
<0xF6>	0
<0xF7>	0
<0xF8>	0
<0xF9>	0
<0xFA>	0
<0xFB>	0
<0xFC>	0
<0xFD>	0
<0xFE>	0
<0xFF>	0
▁,	-0
▁。	-1
..	-2
▁、	-3
▁“	-4
....	-5
可以	-6
。”	-7
一個	-8
我們	-9
公司	-10
自己	-11
:“	-12
使用	-13
沒有	-14
工作	-15
他們	-16
中國	-17
......	-18
就是	-19
進行	-20
什麼	-21
的人	-22
?”	-23
可能	-24
這個	-25
因為	-26
時間	-27
服務	-28
企業	-29
產品	-30
發展	-31
設計	-32
問題	-33
!”	-34
提供	-35
需要	-36
如果	-37
的一	-38
臺灣	-39
美國	-40
er	-41
了一	-42
這些	-43
▁?	-44
是一	-45
開始	-46
人的	-47
技術	-48
不同	-49
▁這	-50
已經	-51
所以	-52
以及	-53
不是	-54
同時	-55
也是	-56
in	-57
都是	-58
國家	-59
系統	-60
on	-61
現在	-62
生活	-63
世界	-64
表示	-65
政府	-66
▁在	-67
其他	-68
不會	-69
這樣	-70
▁年	-71
上的	-72
的是	-73
中的	-74
時候	-75
成為	-76
市場	-77
大的	-78
第一	-79
他的	-80
重要	-81
因此	-82
生產	-83
社會	-84
主要	-85
管理	-86
an	-87
要求	-88
研究	-89
知道	-90
經濟	-91
來的	-92
非常	-93
還有	-94
到了	-95
方式	-96
選擇	-97
部分	-98
怎麼	-99
影響	-100
活動	-101
不過	-102
這種	-103
但是	-104
遊戲	-105
大家	-106
這一	-107
還是	-108
好的	-109
如何	-110
對於	-111
目前	-112
安全	-113
▁A	-114
發現	-115
情況	-116
相關	-117
國際	-118
通過	-119
如此	-120
根據	-121
,“	-122
包括	-123
所有	-124
處理	-125
設備	-126
th	-127
方面	-128
en	-129
功能	-130
▁的	-131
環境	-132
有一	-133
自己的	-134
出現	-135
很多	-136
不能	-137
大學	-138
能力	-139
其中	-140
之後	-141
能夠	-142
甚至	-143
ar	-144
採用	-145
雖然	-146
合作	-147
過程	-148
認為	-149
一般	-150
日本	-151
也不	-152
兩個	-153
獲得	-154
許多	-155
文化	-156
中心	-157
比較	-158
由於	-159
必須	-160
▁;	-161
作為	-162
地區	-163
內容	-164
▁月	-165
而且	-166
香港	-167
le	-168
一些	-169
代表	-170
客戶	-171
▁C	-172
為了	-173
透過	-174
這是	-175
直接	-176
學生	-177
▁他	-178
個人	-179
人員	-180
標準	-181
你的	-182
更多	-183
起來	-184
發生	-185
資料	-186
al	-187
其實	-188
st	-189
教育	-190
▁一	-191
▁S	-192
全球	-193
科技	-194
的事	-195
or	-196
▁!	-197
孩子	-198
特別	-199
我的	-200
數據	-201
那麼	-202
▁第	-203
組織	-204
關係	-205
一定	-206
來說	-207
這麼	-208
是否	-209
投資	-210
網站	-211
最後	-212
無法	-213
任何	-214
具有	-215
方法	-216
應用	-217
▁M	-218
在這	-219
增加	-220
工程	-221
的大	-222
應該	-223
運動	-224
之間	-225
各種	-226
除了	-227
一起	-228
自然	-229
覺得	-230
材料	-231
▁P	-232
一次	-233
地方	-234
希望	-235
建築	-236
......”	-237
持續	-238
專業	-239
看到	-240
▁而	-241
解決	-242
進入	-243
產業	-244
今天	-245
位於	-246
it	-247
——	-248
造成	-249
擁有	-250
產生	-251
空間	-252
一樣	-253
不斷	-254
開發	-255
行業	-256
的時候	-257
完成	-258
控制	-259
超過	-260
at	-261
之一	-262
學習	-263
想要	-264
一下	-265
提升	-266
今年	-267
需求	-268
ic	-269
新的	-270
有些	-271
朋友	-272
質量	-273
一直	-274
價格	-275
只是	-276
完全	-277
容易	-278
歷史	-279
用戶	-280
只有	-281
▁th	-282
決定	-283
的話	-284
保護	-285
就會	-286
出了	-287
▁日	-288
以上	-289
健康	-290
品牌	-291
有人	-292
安裝	-293
目標	-294
繼續	-295
分析	-296
平臺	-297
或者	-298
建設	-299
簡單	-300
集團	-301
re	-302
疫情	-303
電子	-304
項目	-305
年的	-306
未來	-307
▁我	-308
城市	-309
結果	-310
出來	-311
指出	-312
顯示	-313
下的	-314
單位	-315
執行	-316
瞭解	-317
一步	-318
實現	-319
你們	-320
el	-321
正在	-322
然後	-323
結構	-324
實際	-325
期間	-326
自動	-327
媒體	-328
提高	-329
是在	-330
人口	-331
系列	-332
出的	-333
機會	-334
第二	-335
不要	-336
效果	-337
不可	-338
包養	-339
基礎	-340
用於	-341
電影	-342
不得	-343
之前	-344
美元	-345
行動	-346
那些	-347
▁萬	-348
存在	-349
當時	-350
另外	-351
計劃	-352
政策	-353
創新	-354
作用	-355
受到	-356
隨著	-357
參與	-358
達到	-359
原因	-360
支持	-361
ou	-362
人民	-363
加入	-364
真的	-365
藝術	-366
並且	-367
小時	-368
性的	-369
有關	-370
消費	-371
過去	-372
信息	-373
自由	-374
參加	-375
她的	-376
製造	-377
都有	-378
注意	-379
喜歡	-380
導致	-381
全國	-382
得到	-383
快速	-384
成功	-385
操作	-386
有效	-387
只要	-388
壓力	-389
機構	-390
也有	-391
然而	-392
學校	-393
幫助	-394
身體	-395
屬於	-396
比賽	-397
oo	-398
委員	-399
定的	-400
她們	-401
資訊	-402
電視	-403
感覺	-404
有限	-405
相當	-406
經過	-407
建立	-408
資源	-409
音樂	-410
傳統	-411
價值	-412
利用	-413
業務	-414
負責	-415
is	-416
政治	-417
例如	-418
手機	-419
時代	-420
精神	-421
經驗	-422
也會	-423
改變	-424
航空	-425
不同的	-426
成本	-427
下來	-428
es	-429
▁T	-430
不到	-431
以下	-432
建議	-433
針對	-434
或是	-435
經營	-436
減少	-437
%,	-438
而是	-439
都會	-440
會議	-441
英國	-442
一種	-443
不僅	-444
並不	-445
這樣的	-446
▁N	-447
▁但	-448
中央	-449
共同	-450
降低	-451
領域	-452
來自	-453
基本	-454
有的	-455
聯合	-456
不少	-457
員工	-458
▁B	-459
▁G	-460
工業	-461
形成	-462
當地	-463
銷售	-464
ro	-465
多數	-466
製作	-467
▁the	-468
整個	-469
人們	-470
以來	-471
成立	-472
科學	-473
網路	-474
內的	-475
東西	-476
行為	-477
分別	-478
報告	-479
後的	-480
模式	-481
▁I	-482
十分	-483
幾個	-484
表現	-485
即使	-486
都不	-487
ac	-488
as	-489
形式	-490
的小	-491
過程中	-492
▁c	-493
保持	-494
當然	-495
部門	-496
介紹	-497
來了	-498
方便	-499
風險	-500
作品	-501
銀行	-502
am	-503
才能	-504
溫度	-505
通常	-506
體驗	-507
▁本	-508
分享	-509
更加	-510
位置	-511
團隊	-512
提出	-513
準備	-514
規定	-515
讓人	-516
▁L	-517
看着	-518
責任	-519
大量	-520
積極	-521
主義	-522
力的	-523
就能	-524
範圍	-525
面積	-526
我們的	-527
全面	-528
宣佈	-529
者的	-530
調整	-531
進一步	-532
成長	-533
推出	-534
條件	-535
家的	-536
廣告	-537
正式	-538
交易	-539
另一	-540
性能	-541
接受	-542
新聞	-543
▁w	-544
▁是	-545
左右	-546
總統	-547
國內	-548
故事	-549
方案	-550
分鐘	-551
說明	-552
關鍵	-553
電動	-554
高的	-555
家庭	-556
樣的	-557
狀況	-558
申請	-559
裡的	-560
討論	-561
變化	-562
變成	-563
距離	-564
適合	-565
他們的	-566
一點	-567
哪些	-568
推動	-569
會有	-570
避免	-571
公里	-572
數字	-573
上海	-574
下一	-575
年代	-576
歐洲	-577
此外	-578
穩定	-579
速度	-580
ent	-581
▁s	-582
▁大	-583
三個	-584
區域	-585
可是	-586
檢查	-587
表面	-588
越來	-589
et	-590
ol	-591
學院	-592
的高	-593
相對	-594
考慮	-595
變得	-596
關於	-597
到底	-598
則是	-599
後來	-600
現場	-601
真正	-602
符合	-603
ing	-604
越來越	-605
▁p	-606
一度	-607
人類	-608
嚴重	-609
生的	-610
購買	-611
ed	-612
id	-613
兩人	-614
計算	-615
保證	-616
機械	-617
治療	-618
行政	-619
體的	-620
中華	-621
二十	-622
加上	-623
方向	-624
開放	-625
在此	-626
法律	-627
領導	-628
不知	-629
以後	-630
包含	-631
她倆	-632
時的	-633
本身	-634
正常	-635
規模	-636
重新	-637
的問題	-638
優勢	-639
多少	-640
工藝	-641
重點	-642
品質	-643
狀態	-644
供應	-645
地的	-646
度的	-647
玩家	-648
pp	-649
▁陳	-650
儘管	-651
智慧	-652
組成	-653
老師	-654
ion	-655
▁R	-656
化的	-657
增長	-658
發布	-659
能源	-660
金融	-661
文章	-662
清楚	-663
現代	-664
第三	-665
裝置	-666
辦公	-667
電腦	-668
一聲	-669
如今	-670
最終	-671
長期	-672
▁那	-673
擔任	-674
汽車	-675
環保	-676
目的	-677
確定	-678
為什麼	-679
▁/	-680
▁t	-681
不足	-682
反應	-683
年輕	-684
臺北	-685
身上	-686
▁m	-687
努力	-688
多的	-689
平方	-690
之外	-691
人士	-692
像是	-693
創造	-694
加工	-695
感到	-696
時期	-697
用的	-698
知識	-699
色的	-700
體系	-701
om	-702
世紀	-703
力量	-704
加強	-705
北京	-706
平均	-707
意識	-708
檢測	-709
電話	-710
有限公司	-711
="	-712
報導	-713
安排	-714
核心	-715
水平	-716
相信	-717
醫療	-718
一切	-719
年來	-720
成了	-721
每個	-722
滿足	-723
委員會	-724
的一個	-725
他倆	-726
歡迎	-727
每天	-728
無論	-729
等等	-730
▁億	-731
▁李	-732
仍然	-733
就在	-734
空氣	-735
記者	-736
ad	-737
▁她	-738
交通	-739
內部	-740
面的	-741
il	-742
、、	-743
人都	-744
去年	-745
告訴	-746
數量	-747
生物	-748
階段	-749
是一種	-750
▁D	-751
▁E	-752
▁當	-753
令人	-754
只能	-755
想到	-756
意義	-757
於是	-758
結合	-759
這次	-760
閱讀	-761
印度	-762
工具	-763
整體	-764
曾經	-765
行的	-766
就可以	-767
施工	-768
獨立	-769
確保	-770
稱為	-771
至於	-772
這裡	-773
面對	-774
也可以	-775
是一個	-776
ig	-777
▁F	-778
商品	-779
帶來	-780
最大	-781
民眾	-782
綜合	-783
%。	-784
▁W	-785
▁b	-786
一位	-787
打造	-788
消息	-789
程度	-790
課程	-791
”,	-792
主題	-793
取得	-794
子的	-795
它的	-796
專家	-797
測試	-798
病毒	-799
競爭	-800
▁如果	-801
它們	-802
尤其	-803
措施	-804
旅遊	-805
明顯	-806
的心	-807
的新	-808
調查	-809
不用	-810
堅持	-811
幾乎	-812
規劃	-813
▁個	-814
對方	-815
所謂	-816
疫苗	-817
豐富	-818
重要的	-819
智能	-820
機器	-821
線上	-822
▁以	-823
去了	-824
商業	-825
您的	-826
接觸	-827
普通	-828
研發	-829
衛生	-830
都能	-831
公司的	-832
教授	-833
訓練	-834
同樣	-835
運輸	-836
高度	-837
▁H	-838
▁上	-839
亦然	-840
呈現	-841
國的	-842
實驗	-843
心的	-844
最高	-845
看了	-846
至少	-847
角色	-848
離開	-849
電池	-850
ay	-851
最近	-852
的情況	-853
大陸	-854
文件	-855
看看	-856
註冊	-857
開展	-858
件事	-859
分為	-860
因素	-861
看著	-862
▁o	-863
▁有	-864
而言	-865
食品	-866
▁此	-867
來到	-868
出一	-869
在那	-870
引起	-871
效率	-872
生命	-873
看向	-874
確實	-875
認識	-876
醫院	-877
的工作	-878
▁a	-879
▁不	-880
公開	-881
卻是	-882
有點	-883
都在	-884
可能會	-885
事件	-886
似乎	-887
免費	-888
協助	-889
找到	-890
維持	-891
自身	-892
計畫	-893
設施	-894
讓你	-895
也能	-896
天的	-897
廣泛	-898
推薦	-899
污染	-900
爾等	-901
的天	-902
▁K	-903
即可	-904
”。	-905
▁f	-906
▁從	-907
採取	-908
記錄	-909
關注	-910
依然	-911
先生	-912
動力	-913
改善	-914
母親	-915
現象	-916
ow	-917
▁V	-918
作業	-919
全部	-920
吸引	-921
法國	-922
版本	-923
生態	-924
相同	-925
結束	-926
絕對	-927
資格	-928
▁你	-929
也很	-930
前的	-931
根本	-932
ver	-933
▁d	-934
▁為	-935
▁說	-936
以為	-937
原本	-938
支援	-939
每年	-940
玻璃	-941
發表	-942
長的	-943
到的	-944
動物	-945
包裝	-946
官方	-947
意思	-948
特色	-949
特點	-950
經常	-951
還要	-952
限制	-953
and	-954
包養網	-955
一年	-956
作者	-957
克蘭	-958
再次	-959
小的	-960
必要	-961
網絡	-962
▁人	-963
▁就	-964
公共	-965
常見	-966
投入	-967
機的	-968
畢業	-969
職業	-970
運行	-971
類似	-972
食物	-973
▁和	-974
▁葉	-975
名的	-976
強調	-977
成員	-978
搭配	-979
正確	-980
當中	-981
的地	-982
竟然	-983
讓我	-984
逐漸	-985
附近	-986
風格	-987
不知道	-988
▁林	-989
出去	-990
前往	-991
協會	-992
實在	-993
發揮	-994
的時	-995
董事	-996
解釋	-997
讓他	-998
大多數	-999
的時間	-1000
ot	-1001
保障	-1002
媽媽	-1003
發行	-1004
▁與	-1005
事實	-1006
享受	-1007
具備	-1008
具體	-1009
出口	-1010
就有	-1011
從而	-1012
成績	-1013
或許	-1014
教學	-1015
維護	-1016
運用	-1017
間的	-1018
下去	-1019
利亞	-1020
按照	-1021
教師	-1022
理解	-1023
直到	-1024
程式	-1025
肯定	-1026
鐵路	-1027
青年	-1028
之間的	-1029
嚴格	-1030
外的	-1031
完整	-1032
掌握	-1033
的女	-1034
的那	-1035
綠色	-1036
該署	-1037
說是	-1038
不住	-1039
任務	-1040
值得	-1041
參考	-1042
在地	-1043
好了	-1044
放在	-1045
畢竟	-1046
配合	-1047
難以	-1048
首先	-1049
▁我們	-1050
us	-1051
一番	-1052
充分	-1053
實力	-1054
舉辦	-1055
辦法	-1056
錯誤	-1057
餐廳	-1058
是什麼	-1059
消費者	-1060
事業	-1061
型的	-1062
是不	-1063
最新	-1064
經理	-1065
聲音	-1066
連接	-1067
上了	-1068
交流	-1069
人物	-1070
今日	-1071
十二	-1072
升級	-1073
及時	-1074
合理	-1075
夥伴	-1076
太多	-1077
影片	-1078
感受	-1079
有所	-1080
的主	-1081
突然	-1082
策略	-1083
費用	-1084
連續	-1085
!!	-1086
挑戰	-1087
更是	-1088
站在	-1089
羅斯	-1090
的地方	-1091
▁小	-1092
為主	-1093
節目	-1094
戰略	-1095
的情	-1096
設定	-1097
▁in	-1098
烏克蘭	-1099
辦公室	-1100
咖啡	-1101
會員	-1102
特殊	-1103
能量	-1104
鼓勵	-1105
▁中	-1106
▁可	-1107
工廠	-1108
是個	-1109
聯盟	-1110
舉行	-1111
說的	-1112
隨後	-1113
ec	-1114
國民	-1115
外交	-1116
太陽	-1117
小姐	-1118
最佳	-1119
機制	-1120
也要	-1121
保險	-1122
充滿	-1123
公佈	-1124
文明	-1125
溝通	-1126
觀察	-1127
也就是	-1128
▁n	-1129
一名	-1130
不再	-1131
優惠	-1132
培訓	-1133
基金	-1134
展開	-1135
推廣	-1136
收入	-1137
自我	-1138
萬元	-1139
證明	-1140
車站	-1141
進去	-1142
還在	-1143
願意	-1144
一期	-1145
人數	-1146
唯一	-1147
成就	-1148
文字	-1149
楊開	-1150
猶太	-1151
的好	-1152
眼睛	-1153
終於	-1154
語言	-1155
的事情	-1156
的重要	-1157
之中	-1158
也在	-1159
充電	-1160
化學	-1161
原來	-1162
實施	-1163
日常	-1164
有多	-1165
的神	-1166
的身	-1167
程序	-1168
統一	-1169
od	-1170
事情	-1171
人生	-1172
來看	-1173
其它	-1174
口罩	-1175
可靠	-1176
斯拉	-1177
移動	-1178
習慣	-1179
規範	-1180
酒店	-1181
預計	-1182
並沒有	-1183
人在	-1184
句話	-1185
大利	-1186
好像	-1187
德國	-1188
思考	-1189
瞬間	-1190
經歷	-1191
質的	-1192
農業	-1193
這位	-1194
頭的	-1195
決不會	-1196
別人	-1197
回到	-1198
在一	-1199
天然	-1200
年前	-1201
思想	-1202
數位	-1203
比如	-1204
流程	-1205
立即	-1206
認證	-1207
遇到	-1208
mm	-1209
▁王	-1210
不想	-1211
之力	-1212
促進	-1213
冠軍	-1214
創作	-1215
娛樂	-1216
完善	-1217
格爾	-1218
概念	-1219
組合	-1220
纔是	-1221
背景	-1222
資金	-1223
還能	-1224
韓國	-1225
是不是	-1226
se	-1227
▁-	-1228
便是	-1229
做出	-1230
億元	-1231
動作	-1232
困難	-1233
每一	-1234
突破	-1235
說道	-1236
▁of	-1237
也就	-1238
以前	-1239
勞動	-1240
快樂	-1241
感染	-1242
的氣	-1243
確認	-1244
金屬	-1245
都可以	-1246
▁蘇	-1247
不了	-1248
同意	-1249
否則	-1250
寶樂	-1251
將會	-1252
營養	-1253
父母	-1254
社區	-1255
紀錄	-1256
表達	-1257
軟體	-1258
▁三	-1259
下載	-1260
人工	-1261
先進	-1262
再有	-1263
啟動	-1264
拍攝	-1265
相比	-1266
蘋果	-1267
貿易	-1268
追求	-1269
雙方	-1270
使用者	-1271
是因為	-1272
的方式	-1273
不錯	-1274
列車	-1275
就像	-1276
就算	-1277
強度	-1278
患者	-1279
態度	-1280
更新	-1281
有了	-1282
法院	-1283
爆發	-1284
疾病	-1285
空中	-1286
至今	-1287
訊息	-1288
這般	-1289
邀請	-1290
im	-1291
但在	-1292
優化	-1293
咱們	-1294
多種	-1295
感恩	-1296
推進	-1297
比例	-1298
消失	-1299
統計	-1300
過來	-1301
重大	-1302
一定要	-1303
ir	-1304
si	-1305
un	-1306
一家	-1307
下降	-1308
他在	-1309
使得	-1310
來源	-1311
即將	-1312
多個	-1313
心理	-1314
民主	-1315
獨特	-1316
理論	-1317
的中	-1318
的老	-1319
車輛	-1320
過的	-1321
都要	-1322
韋浩	-1323
上下	-1324
不夠	-1325
協議	-1326
哪裡	-1327
大概	-1328
成果	-1329
我想	-1330
期的	-1331
機場	-1332
氧化	-1333
深入	-1334
落實	-1335
那個	-1336
一眼	-1337
並非	-1338
之下	-1339
也沒	-1340
佈局	-1341
展示	-1342
平衡	-1343
指數	-1344
旅行	-1345
死亡	-1346
男人	-1347
男子	-1348
的前	-1349
秦塵	-1350
安格爾	-1351
人才	-1352
做好	-1353
團體	-1354
帶着	-1355
我國	-1356
提到	-1357
某些	-1358
理念	-1359
的水	-1360
的美	-1361
社羣	-1362
給你	-1363
走了	-1364
很大	-1365
恢復	-1366
意見	-1367
房間	-1368
指導	-1369
授權	-1370
攻擊	-1371
明確	-1372
理想	-1373
畫面	-1374
真實	-1375
聽到	-1376
視頻	-1377
通知	-1378
點頭	-1379
最大的	-1380
ub	-1381
不在	-1382
之人	-1383
互動	-1384
人族	-1385
個月	-1386
兒童	-1387
危險	-1388
如下	-1389
差異	-1390
帶著	-1391
心中	-1392
想法	-1393
戰爭	-1394
會兒	-1395
決策	-1396
清潔	-1397
測量	-1398
父親	-1399
網友	-1400
設置	-1401
詳細	-1402
辦理	-1403
革命	-1404
了一個	-1405
俄羅斯	-1406
的發展	-1407
▁h	-1408
主席	-1409
事務	-1410
冇有	-1411
原則	-1412
女性	-1413
實踐	-1414
就要	-1415
循環	-1416
擴大	-1417
此時	-1418
物流	-1419
物質	-1420
的手	-1421
看見	-1422
臺中	-1423
迅速	-1424
▁元	-1425
▁天	-1426
▁高	-1427
上一	-1428
不及	-1429
垃圾	-1430
大型	-1431
宣傳	-1432
提醒	-1433
是由	-1434
有機	-1435
期待	-1436
涉及	-1437
聯網	-1438
興趣	-1439
規則	-1440
試驗	-1441
出來的	-1442
特斯拉	-1443
主動	-1444
分佈	-1445
土地	-1446
慢慢	-1447
技能	-1448
更好	-1449
會的	-1450
真是	-1451
而不	-1452
評估	-1453
▁st	-1454
王寶樂	-1455
適用於	-1456
os	-1457
三年	-1458
上述	-1459
停止	-1460
同一	-1461
在了	-1462
對此	-1463
很難	-1464
怎樣	-1465
而在	-1466
記得	-1467
說話	-1468
適應	-1469
電力	-1470
...	-1471
使用的	-1472
有哪些	-1473
航空公司	-1474
▁新	-1475
三十	-1476
下了	-1477
做到	-1478
兩種	-1479
出生	-1480
分子	-1481
名為	-1482
大小	-1483
往往	-1484
擔心	-1485
本來	-1486
的不	-1487
知名	-1488
等人	-1489
管道	-1490
自行	-1491
面臨	-1492
義大利	-1493
ch	-1494
亞洲	-1495
兒子	-1496
共有	-1497
動畫	-1498
區的	-1499
培養	-1500
家人	-1501
房屋	-1502
採購	-1503
效益	-1504
既然	-1505
書記	-1506
笑道	-1507
給我	-1508
過了	-1509
選舉	-1510
一個人	-1511
如果你	-1512
三千	-1513
中共	-1514
主角	-1515
利益	-1516
制度	-1517
印象	-1518
反對	-1519
同學	-1520
嘗試	-1521
在他	-1522
基因	-1523
基地	-1524
多了	-1525
多元	-1526
就不	-1527
展現	-1528
從事	-1529
拒絕	-1530
指標	-1531
整合	-1532
方的	-1533
混凝	-1534
物的	-1535
的道	-1536
笑了	-1537
而來	-1538
菩薩	-1539
角度	-1540
身份	-1541
那幅	-1542
馬上	-1543
有什麼	-1544
電動車	-1545
七夜	-1546
定義	-1547
密度	-1548
年齡	-1549
庫門	-1550
情緒	-1551
意外	-1552
打開	-1553
明白	-1554
最好	-1555
有著	-1556
每次	-1557
氣的	-1558
破壞	-1559
缺乏	-1560
舒適	-1561
衣服	-1562
觀眾	-1563
諮詢	-1564
輕鬆	-1565
通訊	-1566
石庫門	-1567
良好的	-1568
IS	-1569
ag	-1570
伺服	-1571
住了	-1572
依據	-1573
優秀	-1574
固定	-1575
完美	-1576
居民	-1577
接近	-1578
有時	-1579
毫無	-1580
照片	-1581
現實	-1582
用來	-1583
處於	-1584
近平	-1585
重視	-1586
顏色	-1587
實際上	-1588
ve	-1589
▁二	-1590
▁要	-1591
不好	-1592
主任	-1593
做的	-1594
創業	-1595
商標	-1596
團結	-1597
基督	-1598
室內	-1599
故障	-1600
歲的	-1601
物理	-1602
調節	-1603
資產	-1604
足夠	-1605
運作	-1606
還沒	-1607
防疫	-1608
體育	-1609
更多的	-1610
的生活	-1611
習近平	-1612
一天	-1613
不久	-1614
不管	-1615
也許	-1616
允許	-1617
分類	-1618
加坡	-1619
少數	-1620
年夜	-1621
很好	-1622
感謝	-1623
效能	-1624
會在	-1625
正是	-1626
第四	-1627
而已	-1628
足球	-1629
連結	-1630
邊的	-1631
部的	-1632
高達	-1633
看起來	-1634
第一次	-1635
▁J	-1636
上市	-1637
他也	-1638
兩位	-1639
各項	-1640
女兒	-1641
放棄	-1642
是以	-1643
是有	-1644
現金	-1645
運營	-1646
ign	-1647
正正在	-1648
混凝土	-1649
一路	-1650
一邊	-1651
元素	-1652
出版	-1653
危機	-1654
味道	-1655
在家	-1656
報道	-1657
尋找	-1658
廠家	-1659
防止	-1660
電機	-1661
首次	-1662
可以在	-1663
的同時	-1664
ra	-1665
一笑	-1666
不定	-1667
主管	-1668
各類	-1669
場所	-1670
尺寸	-1671
強的	-1672
心裡	-1673
我就	-1674
星期	-1675
此次	-1676
氣候	-1677
泰國	-1678
流行	-1679
空調	-1680
貢獻	-1681
資本	-1682
達成	-1683
順利	-1684
預防	-1685
特別是	-1686
的產品	-1687
▁O	-1688
▁U	-1689
▁e	-1690
一場	-1691
並在	-1692
保留	-1693
公園	-1694
各地	-1695
因而	-1696
圖書	-1697
地位	-1698
多次	-1699
居住	-1700
左小	-1701
指定	-1702
接著	-1703
支付	-1704
旅客	-1705
機關	-1706
漸漸	-1707
皮膚	-1708
考試	-1709
輸入	-1710
進步	-1711
那就	-1712
配置	-1713
隨身	-1714
一旦	-1715
傳播	-1716
到達	-1717
同步	-1718
和平	-1719
地球	-1720
始終	-1721
就業	-1722
年度	-1723
成分	-1724
普遍	-1725
材質	-1726
東南	-1727
清洗	-1728
眾多	-1729
英文	-1730
訪問	-1731
設有	-1732
起了	-1733
障礙	-1734
集中	-1735
飲食	-1736
gle	-1737
的影響	-1738
聯合國	-1739
**	-1740
不太	-1741
不然	-1742
不論	-1743
中文	-1744
中間	-1745
反映	-1746
各個	-1747
坐在	-1748
壽命	-1749
居然	-1750
幸福	-1751
改革	-1752
權利	-1753
沈落	-1754
熟悉	-1755
特性	-1756
百分	-1757
細胞	-1758
量的	-1759
關閉	-1760
情況下	-1761
sp	-1762
▁:	-1763
▁對	-1764
信號	-1765
修改	-1766
公主	-1767
吸收	-1768
場景	-1769
多年	-1770
大約	-1771
好好	-1772
對象	-1773
很快	-1774
想像	-1775
成的	-1776
技巧	-1777
收集	-1778
日子	-1779
添加	-1780
經典	-1781
醫生	-1782
開了	-1783
大部分	-1784
的原因	-1785
Ph	-1786
▁等	-1787
便宜	-1788
共和	-1789
再度	-1790
反而	-1791
四個	-1792
回應	-1793
回收	-1794
家長	-1795
引發	-1796
愛的	-1797
手術	-1798
打擊	-1799
排放	-1800
損失	-1801
晚上	-1802
樣子	-1803
照顧	-1804
纖維	-1805
複雜	-1806
說了	-1807
ont	-1808
▁所以	-1809
可能是	-1810
更好的	-1811
產品的	-1812
一致	-1813
也都	-1814
千萬	-1815
大幅	-1816
學會	-1817
專輯	-1818
影像	-1819
從未	-1820
早已	-1821
是最	-1822
最低	-1823
校長	-1824
植物	-1825
立刻	-1826
處的	-1827
裡面	-1828
設立	-1829
讀者	-1830
趨勢	-1831
隨時	-1832
駕駛	-1833
點了	-1834
伺服器	-1835
另一個	-1836
▁and	-1837
ut	-1838
一體	-1839
上來	-1840
下午	-1841
不敢	-1842
創意	-1843
參賽	-1844
各位	-1845
場的	-1846
從此	-1847
早就	-1848
明的	-1849
是指	-1850
時尚	-1851
更有	-1852
查詢	-1853
民國	-1854
結婚	-1855
老祖	-1856
裝飾	-1857
規格	-1858
記憶	-1859
軍事	-1860
轉型	-1861
那是	-1862
黑色	-1863
▁al	-1864
李七夜	-1865
的一種	-1866
▁自	-1867
一條	-1868
休息	-1869
半年	-1870
取消	-1871
地產	-1872
基於	-1873
女人	-1874
官員	-1875
引擎	-1876
批評	-1877
支撐	-1878
有個	-1879
滿意	-1880
甚麼	-1881
究竟	-1882
觀點	-1883
軟件	-1884
那種	-1885
▁這是	-1886
▁雖然	-1887
也不會	-1888
有一個	-1889
平方公里	-1890
oogle	-1891
eo	-1892
上去	-1893
之處	-1894
信心	-1895
共產	-1896
其餘	-1897
前面	-1898
加快	-1899
加盟	-1900
博士	-1901
名字	-1902
呼吸	-1903
國務	-1904
塑料	-1905
定位	-1906
專門	-1907
巴士	-1908
市民	-1909
意味	-1910
我在	-1911
手段	-1912
排名	-1913
族的	-1914
會上	-1915
會被	-1916
未能	-1917
某種	-1918
步驟	-1919
氣體	-1920
流量	-1921
潛水	-1922
爭議	-1923
當前	-1924
目光	-1925
精度	-1926
融合	-1927
表演	-1928
訂單	-1929
財務	-1930
還不	-1931
那裡	-1932
以上的	-1933
在一起	-1934
新加坡	-1935
的設計	-1936
這件事	-1937
??	-1938
ix	-1939
ul	-1940
▁將	-1941
並未	-1942
仍舊	-1943
他人	-1944
出席	-1945
加拿	-1946
名稱	-1947
周圍	-1948
品種	-1949
均勻	-1950
失去	-1951
女子	-1952
宗教	-1953
密封	-1954
小說	-1955
強烈	-1956
成熟	-1957
探索	-1958
新冠	-1959
無限	-1960
百年	-1961
粉絲	-1962
紐約	-1963
給予	-1964
藥物	-1965
部長	-1966
銹鋼	-1967
電源	-1968
飛機	-1969
事實上	-1970
在這裡	-1971
很大的	-1972
段時間	-1973
解決方案	-1974
IN	-1975
ik	-1976
上升	-1977
上面	-1978
不由	-1979
優質	-1980
全體	-1981
判斷	-1982
加熱	-1983
勢力	-1984
原料	-1985
地點	-1986
報名	-1987
壓縮	-1988
少年	-1989
延伸	-1990
很有	-1991
律師	-1992
感情	-1993
手的	-1994
承認	-1995
指揮	-1996
晶片	-1997
最多	-1998
案件	-1999
海外	-2000
理由	-2001
老闆	-2002
而出	-2003
般的	-2004
表情	-2005
覆蓋	-2006
貸款	-2007
這邊	-2008
one	-2009
主要是	-2010
圖書館	-2011
董事長	-2012
,”	-2013
ED	-2014
不出	-2015
也將	-2016
仔細	-2017
以便	-2018
你是	-2019
可見	-2020
品的	-2021
宇宙	-2022
尚未	-2023
時刻	-2024
本人	-2025
森林	-2026
混合	-2027
無人	-2028
球隊	-2029
答案	-2030
級的	-2031
總是	-2032
老人	-2033
視覺	-2034
認知	-2035
近日	-2036
逐步	-2037
那一	-2038
那樣	-2039
▁to	-2040
也沒有	-2041
在美國	-2042
的內容	-2043
第一個	-2044
讓我們	-2045
OS	-2046
▁張	-2047
主持	-2048
五十	-2049
假如	-2050
制定	-2051
協調	-2052
小編	-2053
治理	-2054
演出	-2055
環球	-2056
生涯	-2057
的確	-2058
監控	-2059
線的	-2060
良好	-2061
衛星	-2062
論文	-2063
輸出	-2064
近期	-2065
過濾	-2066
都很	-2067
關系	-2068
▁這個	-2069
常見的	-2070
的要求	-2071
ze	-2072
▁老	-2073
住宅	-2074
便利	-2075
夢想	-2076
小組	-2077
從來	-2078
應對	-2079
此刻	-2080
然的	-2081
物料	-2082
神經	-2083
肌膚	-2084
莫德	-2085
見到	-2086
評論	-2087
▁現在	-2088
接下來	-2089
ct	-2090
不起	-2091
了幾	-2092
事項	-2093
回來	-2094
妻子	-2095
廠商	-2096
我是	-2097
攝影	-2098
日的	-2099
準確	-2100
演員	-2101
瀏覽	-2102
營銷	-2103
環節	-2104
百萬	-2105
細節	-2106
視為	-2107
證券	-2108
越南	-2109
進口	-2110
道路	-2111
還會	-2112
都沒	-2113
醫師	-2114
鏡頭	-2115
門的	-2116
預算	-2117
黨的	-2118
▁AI	-2119
▁根據	-2120
中國的	-2121
尤其是	-2122
年輕人	-2123
簡單的	-2124
臺灣的	-2125
設計師	-2126
中國大陸	-2127
:。	-2128
▁Y	-2129
一同	-2130
之時	-2131
但他	-2132
出發	-2133
在於	-2134
大大	-2135
孟川	-2136
專案	-2137
常常	-2138
廣大	-2139
強化	-2140
打破	-2141
放鬆	-2142
整理	-2143
清晰	-2144
營收	-2145
生存	-2146
相互	-2147
石峯	-2148
給他	-2149
網頁	-2150
評價	-2151
認真	-2152
跟著	-2153
較為	-2154
重的	-2155
開啟	-2156
▁美國	-2157
了一眼	-2158
這一次	-2159
還可以	-2160
ation	-2161
▁g	-2162
不見	-2163
代理	-2164
信用	-2165
兒的	-2166
公尺	-2167
四十	-2168
回家	-2169
外界	-2170
大眾	-2171
尼亞	-2172
市鎮	-2173
惕吾	-2174
感的	-2175
文學	-2176
日期	-2177
為何	-2178
異常	-2179
當局	-2180
的本	-2181
看來	-2182
紛紛	-2183
美食	-2184
臺南	-2185
臺大	-2186
裝修	-2187
轉換	-2188
開口	-2189
防控	-2190
隔離	-2191
類的	-2192
不銹鋼	-2193
你可以	-2194
cent	-2195
的情況下	-2196
ET	-2197
lo	-2198
▁i	-2199
▁也	-2200
▁無	-2201
一股	-2202
不行	-2203
器的	-2204
審查	-2205
將其	-2206
形象	-2207
我也	-2208
所需	-2209
教會	-2210
漫畫	-2211
的光	-2212
紅色	-2213
耶穌	-2214
自主	-2215
若是	-2216
裝備	-2217
象徵	-2218
都被	-2219
金剛	-2220
高溫	-2221
了一下	-2222
全世界	-2223
所有的	-2224
方面的	-2225
無論是	-2226
的功能	-2227
SS	-2228
eb	-2229
em	-2230
▁再	-2231
下面	-2232
人體	-2233
以外	-2234
兄弟	-2235
取代	-2236
如同	-2237
婚姻	-2238
彼此	-2239
性和	-2240
戰鬥	-2241
攪拌	-2242
方緣	-2243
檔案	-2244
民族	-2245
海拔	-2246
營運	-2247
登記	-2248
的上	-2249
禁止	-2250
節能	-2251
行星	-2252
衝突	-2253
詢問	-2254
議題	-2255
超級	-2256
身為	-2257
過度	-2258
類型	-2259
驅動	-2260
不需要	-2261
提供了	-2262
IP	-2263
一張	-2264
一臉	-2265
之地	-2266
他說	-2267
儲存	-2268
加速	-2269
化妝	-2270
十三	-2271
園區	-2272
外觀	-2273
多人	-2274
天下	-2275
天尊	-2276
天氣	-2277
如斯	-2278
小心	-2279
幾年	-2280
徹底	-2281
恐怕	-2282
打算	-2283
林逸	-2284
歐盟	-2285
特定	-2286
犯罪	-2287
男性	-2288
的眼	-2289
示範	-2290
緊張	-2291
購物	-2292
輔助	-2293
離婚	-2294
ter	-2295
加拿大	-2296
實驗室	-2297
設計的	-2298
不上	-2299
低於	-2300
其後	-2301
別的	-2302
千米	-2303
可在	-2304
合適	-2305
商務	-2306
山東	-2307
延長	-2308
強大	-2309
承擔	-2310
拓展	-2311
是要	-2312
業者	-2313
永遠	-2314
焊接	-2315
生素	-2316
確診	-2317
祕密	-2318
等級	-2319
算是	-2320
練習	-2321
股票	-2322
貨幣	-2323
這兩	-2324
這項	-2325
開心	-2326
雜誌	-2327
顧客	-2328
麻煩	-2329
ook	-2330
▁——	-2331
之所以	-2332
供應商	-2333
國務院	-2334
的企業	-2335
進行了	-2336
nd	-2337
um	-2338
一人	-2339
世代	-2340
保存	-2341
個性	-2342
做了	-2343
刺激	-2344
勞工	-2345
即時	-2346
召開	-2347
各國	-2348
名單	-2349
國外	-2350
學者	-2351
意的	-2352
房子	-2353
才會	-2354
斯坦	-2355
日起	-2356
有趣	-2357
歌曲	-2358
物品	-2359
現時	-2360
線路	-2361
聯絡	-2362
色彩	-2363
選用	-2364
部落	-2365
陸續	-2366
難道	-2367
面前	-2368
預測	-2369
飛行	-2370
yle	-2371
並不是	-2372
國家的	-2373
很多人	-2374
感恩節	-2375
的使用	-2376
的能力	-2377
豐富的	-2378
負責人	-2379
上午	-2380
事故	-2381
云云	-2382
傳輸	-2383
優先	-2384
全新	-2385
公民	-2386
合約	-2387
咱倆	-2388
四川	-2389
因爲	-2390
境內	-2391
大會	-2392
失敗	-2393
姑娘	-2394
威脅	-2395
帶動	-2396
應當	-2397
所在	-2398
改造	-2399
是我	-2400
模型	-2401
留下	-2402
發出	-2403
聲明	-2404
致力	-2405
街道	-2406
走到	-2407
週期	-2408
部署	-2409
金額	-2410
關心	-2411
面上	-2412
高雄	-2413
和其他	-2414
工程師	-2415
有機會	-2416
此同時	-2417
產生的	-2418
發展的	-2419
相關的	-2420
自動化	-2421
span	-2422
PU	-2423
▁名	-2424
不但	-2425
你要	-2426
做法	-2427
判決	-2428
北部	-2429
各式	-2430
單元	-2431
回答	-2432
將在	-2433
導演	-2434
少女	-2435
感動	-2436
感應	-2437
我不	-2438
截至	-2439
播放	-2440
早期	-2441
疑問	-2442
症狀	-2443
紀念	-2444
維修	-2445
認可	-2446
警察	-2447
道的	-2448
遭到	-2449
▁re	-2450
▁不過	-2451
企業的	-2452
工作的	-2453
的方法	-2454
這就是	-2455
?,	-2456
PP	-2457
ia	-2458
▁秦	-2459
不受	-2460
不如	-2461
主教	-2462
作出	-2463
依舊	-2464
儀器	-2465
南部	-2466
各大	-2467
唯獨	-2468
回憶	-2469
國防	-2470
增強	-2471
天地	-2472
客人	-2473
廚房	-2474
廣州	-2475
得以	-2476
描述	-2477
提前	-2478
族羣	-2479
明瞭	-2480
有助	-2481
杉菜	-2482
李洛	-2483
死了	-2484
水的	-2485
球員	-2486
產能	-2487
發的	-2488
總部	-2489
美的	-2490
萬人	-2491
行程	-2492
衝擊	-2493
補充	-2494
見過	-2495
觀光	-2496
說法	-2497
贏得	-2498
轉化	-2499
進而	-2500
適當	-2501
電流	-2502
高效	-2503
▁他們	-2504
共和國	-2505
左小多	-2506
市場的	-2507
教育部	-2508
這麼着	-2509
都沒有	-2510
長時間	-2511
he	-2512
▁歲	-2513
▁點	-2514
三人	-2515
了吧	-2516
俺們	-2517
十四	-2518
即便	-2519
合同	-2520
型號	-2521
多久	-2522
學術	-2523
寶寶	-2524
對着	-2525
平安	-2526
廣場	-2527
引導	-2528
懂得	-2529
我要	-2530
改為	-2531
更換	-2532
永續	-2533
由此	-2534
直播	-2535
簽署	-2536
緊急	-2537
聯繫	-2538
聯邦	-2539
英語	-2540
行銷	-2541
觀看	-2542
進來	-2543
防水	-2544
電壓	-2545
are	-2546
ind	-2547
怎麼樣	-2548
每一個	-2549
總經理	-2550
高質量	-2551
▁col	-2552
verse	-2553
center	-2554
▁style	-2555
▁colspan	-2556
ce	-2557
ly	-2558
▁l	-2559
▁下	-2560
▁若	-2561
上帝	-2562
不多	-2563
中小	-2564
他是	-2565
以此	-2566
來愈	-2567
優良	-2568
優點	-2569
內外	-2570
冷卻	-2571
劇情	-2572
在大	-2573
域主	-2574
局長	-2575
巨大	-2576
彈性	-2577
從前	-2578
扮演	-2579
搜尋	-2580
斯特	-2581
新增	-2582
液體	-2583
營業	-2584
特徵	-2585
界的	-2586
登場	-2587
的對	-2588
的首	-2589
相較	-2590
眼前	-2591
立場	-2592
編輯	-2593
美麗	-2594
老年	-2595
臉色	-2596
螢幕	-2597
西亞	-2598
西方	-2599
身邊	-2600
返回	-2601
退休	-2602
造型	-2603
部份	-2604
預期	-2605
▁Ch	-2606
▁因為	-2607
不可能	-2608
愈來愈	-2609
提供的	-2610
有一些	-2611
猶太人	-2612
系統的	-2613
AI	-2614
__	-2615
▁兩	-2616
▁多	-2617
▁白	-2618
一片	-2619
世民	-2620
主辦	-2621
了嗎	-2622
估計	-2623
候選	-2624
公斤	-2625
原理	-2626
又是	-2627
吾輩	-2628
周邊	-2629
單曲	-2630
報紙	-2631
女王	-2632
實體	-2633
崗位	-2634
把握	-2635
損壞	-2636
日後	-2637
時光	-2638
本條	-2639
檢驗	-2640
此地	-2641
氛圍	-2642
流動	-2643
現今	-2644
病人	-2645
的機	-2646
相應	-2647
社交	-2648
祕書	-2649
管轄	-2650
網上	-2651
翻譯	-2652
靈活	-2653
頻率	-2654
▁但是	-2655
同時也	-2656
沒想到	-2657
的技術	-2658
的朋友	-2659
的關係	-2660
諸如此	-2661
近年來	-2662
ob	-2663
ur	-2664
▁分	-2665
丈夫	-2666
不對	-2667
了下	-2668
今後	-2669
停車	-2670
傳感	-2671
先後	-2672
及其	-2673
口氣	-2674
合金	-2675
同事	-2676
含有	-2677
商場	-2678
單獨	-2679
在我	-2680
墨族	-2681
大多	-2682
委會	-2683
學家	-2684
定期	-2685
強手	-2686
很少	-2687
微微	-2688
心情	-2689
承諾	-2690
收購	-2691
是誰	-2692
最初	-2693
月份	-2694
月的	-2695
每日	-2696
爲了	-2697
爸爸	-2698
生平	-2699
當天	-2700
的三	-2701
盡量	-2702
監督	-2703
相似	-2704
真空	-2705
移民	-2706
種類	-2707
等待	-2708
給了	-2709
統治	-2710
繼承	-2711
落在	-2712
識別	-2713
路線	-2714
開關	-2715
陽光	-2716
驗證	-2717
點的	-2718
ard	-2719
▁下一	-2720
▁公司	-2721
▁目前	-2722
不容易	-2723
互聯網	-2724
真正的	-2725
AR	-2726
了這	-2727
事後	-2728
伏天	-2729
傾向	-2730
入口	-2731
分配	-2732
分離	-2733
利的	-2734
半島	-2735
可惜	-2736
各自	-2737
單純	-2738
外部	-2739
大師	-2740
小孩	-2741
局部	-2742
層的	-2743
幼兒	-2744
建造	-2745
式的	-2746
彷彿	-2747
愛情	-2748
是他	-2749
本文	-2750
東京	-2751
欣賞	-2752
浙江	-2753
液壓	-2754
玩法	-2755
班牙	-2756
生意	-2757
男女	-2758
的長	-2759
相反	-2760
神的	-2761
精彩	-2762
表明	-2763
賺錢	-2764
輸送	-2765
農村	-2766
通道	-2767
關聯	-2768
隨即	-2769
高中	-2770
黨員	-2771
▁由於	-2772
強大的	-2773
有很多	-2774
有沒有	-2775
機器人	-2776
西班牙	-2777
設備的	-2778
這也是	-2779
size	-2780
▁wid	-2781
eoverse	-2782
%"	-2783
%|	-2784
CO	-2785
ab	-2786
ap	-2787
ew	-2788
ip	-2789
▁X	-2790
▁到	-2791
一隻	-2792
主張	-2793
五年	-2794
他就	-2795
但我	-2796
僅僅	-2797
公務	-2798
公告	-2799
創辦	-2800
十八	-2801
十年	-2802
單一	-2803
培育	-2804
專注	-2805
尋求	-2806
帝國	-2807
思維	-2808
更為	-2809
機車	-2810
武漢	-2811
深的	-2812
無可	-2813
無線	-2814
燃料	-2815
現已	-2816
當選	-2817
皇帝	-2818
監測	-2819
總結	-2820
言論	-2821
請求	-2822
證據	-2823
較高	-2824
適用	-2825
邏輯	-2826
配件	-2827
電信	-2828
顧問	-2829
飯店	-2830
▁隨著	-2831
不得不	-2832
專業的	-2833
很容易	-2834
意味著	-2835
每個人	-2836
王惕吾	-2837
的第一	-2838
font	-2839
▁Pro	-2840
比賽報告	-2841
的一部分	-2842
▁align	-2843
▁width	-2844
▁阿	-2845
▁雲	-2846
一來	-2847
不大	-2848
不成	-2849
中有	-2850
也被	-2851
乾淨	-2852
了他	-2853
付出	-2854
位的	-2855
初期	-2856
前後	-2857
動態	-2858
區別	-2859
十九	-2860
原始	-2861
合法	-2862
地面	-2863
實行	-2864
將軍	-2865
就好	-2866
幾天	-2867
底下	-2868
強者	-2869
我會	-2870
我說	-2871
接收	-2872
新鮮	-2873
段凌	-2874
海洋	-2875
深刻	-2876
無需	-2877
當年	-2878
科研	-2879
股份	-2880
花費	-2881
藉由	-2882
計緣	-2883
財政	-2884
財產	-2885
身材	-2886
追蹤	-2887
這也	-2888
這類	-2889
選手	-2890
選項	-2891
遺產	-2892
釋放	-2893
防護	-2894
除此	-2895
預約	-2896
顯著	-2897
art	-2898
ers	-2899
ist	-2900
巨大的	-2901
所謂的	-2902
的主要	-2903
的行為	-2904
維生素	-2905
運動員	-2906
▁億美元	-2907
,,	-2908
ex	-2909
op	-2910
▁全	-2911
▁四	-2912
▁於	-2913
一份	-2914
乾燥	-2915
亦可	-2916
人心	-2917
你說	-2918
依照	-2919
保養	-2920
們的	-2921
傳遞	-2922
克斯	-2923
免疫	-2924
公路	-2925
剛剛	-2926
即是	-2927
參觀	-2928
古巴	-2929
哪個	-2930
問道	-2931
回事	-2932
因應	-2933
圖片	-2934
地說	-2935
如是	-2936
定製	-2937
建於	-2938
成年	-2939
招聘	-2940
搜索	-2941
更高	-2942
本書	-2943
架構	-2944
案例	-2945
深度	-2946
為止	-2947
熱情	-2948
現有	-2949
當下	-2950
發動	-2951
的風	-2952
真相	-2953
等的	-2954
總體	-2955
花園	-2956
號線	-2957
被人	-2958
製品	-2959
親自	-2960
軍隊	-2961
進了	-2962
部件	-2963
電纜	-2964
領先	-2965
顯然	-2966
ell	-2967
est	-2968
▁中國	-2969
▁為了	-2970
▁然而	-2971
▁除了	-2972
不一樣	-2973
共產黨	-2974
可能性	-2975
基本上	-2976
帶來的	-2977
現在的	-2978
平方千米	-2979
,。	-2980
AN	-2981
ID	-2982
PS	-2983
ak	-2984
一對	-2985
互相	-2986
元神	-2987
出手	-2988
化工	-2989
十一	-2990
可達	-2991
合併	-2992
吾儕	-2993
命運	-2994
商店	-2995
圍繞	-2996
地址	-2997
城的	-2998
大了	-2999
好幾	-3000
婦女	-3001
學的	-3002
害怕	-3003
家族	-3004
容器	-3005
密碼	-3006
對手	-3007
導體	-3008
成效	-3009
我輩	-3010
挑選	-3011
早在	-3012
橡膠	-3013
法人	-3014
海底	-3015
理事	-3016
用途	-3017
發明	-3018
的後	-3019
的血	-3020
監管	-3021
笑容	-3022
聲道	-3023
臨時	-3024
融資	-3025
觀念	-3026
財富	-3027
賽事	-3028
赫蒂	-3029
透明	-3030
過後	-3031
遴選	-3032
那位	-3033
都市	-3034
配套	-3035
重量	-3036
間接	-3037
餐飲	-3038
體現	-3039
黃金	-3040
▁is	-3041
▁對於	-3042
▁第一	-3043
▁美元	-3044
世界上	-3045
在中國	-3046
大家都	-3047
成為了	-3048
的感覺	-3049
的環境	-3050
這麼樣	-3051
社會主義	-3052
ie	-3053
▁前	-3054
▁水	-3055
▁請	-3056
一座	-3057
一篇	-3058
不易	-3059
人家	-3060
你不	-3061
使命	-3062
保健	-3063
假設	-3064
傢伙	-3065
傷害	-3066
公眾	-3067
售後	-3068
地理	-3069
基層	-3070
好處	-3071
子裡	-3072
它是	-3073
專利	-3074
川普	-3075
帶領	-3076
年後	-3077
征服	-3078
很高	-3079
情形	-3080
投票	-3081
料理	-3082
方羽	-3083
日在	-3084
朝鮮	-3085
模擬	-3086
權力	-3087
比起	-3088
法規	-3089
游泳	-3090
演化	-3091
火山	-3092
無數	-3093
獲取	-3094
用餐	-3095
留在	-3096
當初	-3097
矛盾	-3098
簡直	-3099
老化	-3100
肺炎	-3101
腐蝕	-3102
自家	-3103
臺幣	-3104
色列	-3105
血管	-3106
變形	-3107
身的	-3108
軸承	-3109
這場	-3110
這時	-3111
這段	-3112
運算	-3113
醫學	-3114
阻止	-3115
陷入	-3116
靈魂	-3117
面向	-3118
頁面	-3119
高速	-3120
點兒	-3121
▁以上	-3122
▁第二	-3123
在這個	-3124
執行長	-3125
怎麼辦	-3126
的基礎	-3127
電視劇	-3128
如此這般	-3129
yp	-3130
▁南	-3131
▁最	-3132
▁看	-3133
▁至	-3134
一看	-3135
主的	-3136
例子	-3137
依法	-3138
內心	-3139
全力	-3140
公平	-3141
十五	-3142
同年	-3143
味的	-3144
喜愛	-3145
喫的	-3146
地下	-3147
多樣	-3148
如其	-3149
寮國	-3150
尊重	-3151
市長	-3152
平時	-3153
年間	-3154
心臟	-3155
懷疑	-3156
抵達	-3157
收到	-3158
改編	-3159
教堂	-3160
教練	-3161
景觀	-3162
曾在	-3163
有利	-3164
本次	-3165
次數	-3166
此後	-3167
武器	-3168
死的	-3169
民間	-3170
污水	-3171
沒了	-3172
然則	-3173
生長	-3174
的出	-3175
直至	-3176
票房	-3177
租金	-3178
笑着	-3179
而成	-3180
臉上	-3181
蛋白	-3182
貴的	-3183
超越	-3184
趕緊	-3185
透露	-3186
這就	-3187
這裏	-3188
這話	-3189
部隊	-3190
郵件	-3191
阿拉	-3192
零售	-3193
電磁	-3194
預估	-3195
風水	-3196
ost	-3197
一開始	-3198
傳感器	-3199
感受到	-3200
而不是	-3201
製造業	-3202
該公司	-3203
赫蒂薩	-3204
韓三千	-3205
▁for	-3206
中華民國	-3207
阿赫蒂薩	-3208
Phone	-3209
qu	-3210
▁"	-3211
▁想	-3212
▁據	-3213
▁金	-3214
交換	-3215
享有	-3216
但卻	-3217
住在	-3218
傢俱	-3219
兩大	-3220
十六	-3221
只好	-3222
和諧	-3223
啤酒	-3224
固然	-3225
太平	-3226
對他	-3227
對待	-3228
對抗	-3229
差別	-3230
心靈	-3231
所得	-3232
按摩	-3233
振動	-3234
提交	-3235
景點	-3236
本地	-3237
構建	-3238
模特	-3239
此處	-3240
浪費	-3241
海岸	-3242
的外	-3243
立法	-3244
累積	-3245
緩解	-3246
縱使	-3247
考量	-3248
西部	-3249
要把	-3250
要是	-3251
認定	-3252
論壇	-3253
諸多	-3254
護理	-3255
讓她	-3256
較低	-3257
轉變	-3258
運轉	-3259
院長	-3260
除非	-3261
隊伍	-3262
頻道	-3263
飾演	-3264
高級	-3265
▁使用	-3266
▁另外	-3267
▁這種	-3268
出現在	-3269
很好的	-3270
技術的	-3271
政府的	-3272
生活的	-3273
的價格	-3274
該如何	-3275
odel	-3276
海拔高度	-3277
諸如此類	-3278
ff	-3279
oc	-3280
▁如	-3281
下轄	-3282
不良	-3283
之道	-3284
但也	-3285
先前	-3286
其一	-3287
前來	-3288
功效	-3289
印刷	-3290
參數	-3291
只會	-3292
呼籲	-3293
四大	-3294
回去	-3295
回報	-3296
多多	-3297
女士	-3298
女孩	-3299
學員	-3300
家樂	-3301
實質	-3302
將來	-3303
居家	-3304
市區	-3305
年紀	-3306
店家	-3307
彭必	-3308
往後	-3309
微軟	-3310
手中	-3311
承受	-3312
掉了	-3313
收益	-3314
效應	-3315
旗下	-3316
業績	-3317
模塊	-3318
河南	-3319
深圳	-3320
激勵	-3321
獨自	-3322
當今	-3323
的山	-3324
的火	-3325
眼神	-3326
短期	-3327
管制	-3328
累計	-3329
義務	-3330
考覈	-3331
肌肉	-3332
脂肪	-3333
華廈	-3334
落地	-3335
詐騙	-3336
軌道	-3337
進度	-3338
鄉村	-3339
開幕	-3340
陣子	-3341
顆粒	-3342
飲料	-3343
高於	-3344
LED	-3345
ere	-3346
▁be	-3347
▁如何	-3348
什麼是	-3349
以色列	-3350
半導體	-3351
孩子的	-3352
的作用	-3353
的故事	-3354
的機會	-3355
的空間	-3356
ee	-3357
▁>	-3358
▁五	-3359
▁還	-3360
一把	-3361
三種	-3362
不只	-3363
不明	-3364
之意	-3365
也可	-3366
乾脆	-3367
了解	-3368
事先	-3369
人和	-3370
債務	-3371
充足	-3372
其次	-3373
出於	-3374
十萬	-3375
印尼	-3376
合計	-3377
後者	-3378
找出	-3379
攜手	-3380
是從	-3381
極端	-3382
模具	-3383
油茶	-3384
焦點	-3385
爭取	-3386
爾的	-3387
版由	-3388
物業	-3389
產量	-3390
的性	-3391
皇家	-3392
石油	-3393
福利	-3394
穿著	-3395
竟是	-3396
第五	-3397
算法	-3398
纔有	-3399
考察	-3400
而後	-3401
自信	-3402
英雄	-3403
華人	-3404
視野	-3405
質疑	-3406
這款	-3407
這點	-3408
遊客	-3409
過於	-3410
那邊	-3411
重建	-3412
陪伴	-3413
隨之	-3414
隨便	-3415
集成	-3416
電梯	-3417
頓時	-3418
食用	-3419
黨委	-3420
▁因此	-3421
▁臺灣	-3422
供應鏈	-3423
大量的	-3424
應該是	-3425
最好的	-3426
的人生	-3427
的效果	-3428
的研究	-3429
致力於	-3430
讓他們	-3431
阿赫蒂薩裡	-3432
▁又	-3433
▁及	-3434
一件	-3435
一半	-3436
一句	-3437
上有	-3438
久已	-3439
人對	-3440
以免	-3441
但這	-3442
佛教	-3443
你會	-3444
傳送	-3445
切實	-3446
剛好	-3447
功率	-3448
十足	-3449
協商	-3450
卻又	-3451
司馬	-3452
合格	-3453
在外	-3454
境的	-3455
大戰	-3456
大樓	-3457
失業	-3458
失蹤	-3459
安心	-3460
官網	-3461
定了	-3462
寫的	-3463
將於	-3464
對應	-3465
層次	-3466
工人	-3467
幫忙	-3468
弟子	-3469
弟弟	-3470
抑制	-3471
指示	-3472
按鈕	-3473
效力	-3474
於此	-3475
明星	-3476
昨天	-3477
條款	-3478
殺了	-3479
無比	-3480
物件	-3481
異的	-3482
白色	-3483
的有	-3484
的精	-3485
稍微	-3486
種植	-3487
種種	-3488
羅馬	-3489
聽見	-3490
背後	-3491
能在	-3492
自此	-3493
與其	-3494
西南	-3495
議會	-3496
輕輕	-3497
這才	-3498
進展	-3499
遠的	-3500
部位	-3501
重慶	-3502
風機	-3503
高壓	-3504
齒輪	-3505
for	-3506
ube	-3507
▁其實	-3508
在那裡	-3509
有助於	-3510
服務的	-3511
段凌天	-3512
當時的	-3513
的一些	-3514
的安全	-3515
▁App	-3516
也就是說	-3517
另一方面	-3518
工作人員	-3519
疫情防控	-3520
?!	-3521
▁Q	-3522
▁好	-3523
上班	-3524
不必	-3525
不禁	-3526
人力	-3527
他還	-3528
你在	-3529
你就	-3530
信任	-3531
修復	-3532
修正	-3533
健全	-3534
傳承	-3535
克里	-3536
入了	-3537
全年	-3538
動的	-3539
原先	-3540
回顧	-3541
執法	-3542
夏季	-3543
大力	-3544
夫妻	-3545
對話	-3546
工夫	-3547
引進	-3548
後續	-3549
復合	-3550
意料	-3551
我和	-3552
持有	-3553
接種	-3554
新生	-3555
有何	-3556
服裝	-3557
校園	-3558
歡樂	-3559
此間	-3560
流的	-3561
清理	-3562
濕度	-3563
留意	-3564
當作	-3565
的法	-3566
盯着	-3567
看得	-3568
羣眾	-3569
聚集	-3570
職場	-3571
腳步	-3572
舞臺	-3573
證書	-3574
身分	-3575
輩子	-3576
轉移	-3577
這份	-3578
道理	-3579
遵守	-3580
配備	-3581
開的	-3582
阿斯	-3583
響應	-3584
顯得	-3585
ang	-3586
app	-3587
red	-3588
▁St	-3589
▁今年	-3590
▁這一	-3591
了一些	-3592
國民黨	-3593
感覺到	-3594
我們在	-3595
甚至於	-3596
生活中	-3597
生產的	-3598
百分之	-3599
的東西	-3600
穩定的	-3601
篇文章	-3602
MO	-3603
ah	-3604
ft	-3605
一代	-3606
三天	-3607
上線	-3608
不停	-3609
不像	-3610
不應	-3611
不滿	-3612
不當	-3613
不絕	-3614
乃是	-3615
之際	-3616
了兩	-3617
個別	-3618
傳染	-3619
兩國	-3620
公寓	-3621
分散	-3622
分明	-3623
切割	-3624
利率	-3625
功夫	-3626
十幾	-3627
口的	-3628
孟拂	-3629
季節	-3630
富汗	-3631
展覽	-3632
廣播	-3633
廣東	-3634
延續	-3635
引領	-3636
形狀	-3637
快的	-3638
恐怖	-3639
恐懼	-3640
手指	-3641
擔憂	-3642
放心	-3643
東北	-3644
板的	-3645
格局	-3646
構成	-3647
每月	-3648
毫米	-3649
漢城	-3650
班雅	-3651
發射	-3652
百姓	-3653
的通	-3654
的門	-3655
看的	-3656
真人	-3657
眼光	-3658
籃球	-3659
精準	-3660
要在	-3661
視線	-3662
謝謝	-3663
議員	-3664
走出	-3665
週年	-3666
銷量	-3667
雙手	-3668
露出	-3669
App	-3670
▁今天	-3671
▁最後	-3672
▁表示	-3673
億美元	-3674
地區的	-3675
學生的	-3676
年開始	-3677
次列車	-3678
正確的	-3679
葉伏天	-3680
阿富汗	-3681
領域的	-3682
人口密度	-3683
EC	-3684
IC	-3685
av	-3686
▁v	-3687
▁國	-3688
▁它	-3689
▁文	-3690
▁時	-3691
一無	-3692
三伏	-3693
上映	-3694
不清	-3695
丹朱	-3696
主體	-3697
以至	-3698
住宿	-3699
你想	-3700
修行	-3701
倒是	-3702
加大	-3703
加爾	-3704
劫境	-3705
只需	-3706
含量	-3707
命令	-3708
哥哥	-3709
圖像	-3710
在中	-3711
在天	-3712
大人	-3713
夫人	-3714
委託	-3715
學位	-3716
對我	-3717
對比	-3718
已有	-3719
巴黎	-3720
廣西	-3721
形態	-3722
得知	-3723
慶祝	-3724
拿到	-3725
擴張	-3726
收費	-3727
放置	-3728
旁邊	-3729
更能	-3730
最早	-3731
期望	-3732
榮獲	-3733
樂趣	-3734
檢察	-3735
權益	-3736
水果	-3737
決賽	-3738
消耗	-3739
消防	-3740
澳門	-3741
激光	-3742
為例	-3743
犧牲	-3744
獎勵	-3745
痛苦	-3746
發起	-3747
的原	-3748
突出	-3749
簽證	-3750
而非	-3751
補償	-3752
親子	-3753
認同	-3754
貫徹	-3755
過敏	-3756
阿里	-3757
離子	-3758
雲澈	-3759
面試	-3760
out	-3761
也不能	-3762
了一聲	-3763
您可以	-3764
的資料	-3765
總人口	-3766
美國的	-3767
與其他	-3768
這兩個	-3769
組成部分	-3770
與此同時	-3771
AS	-3772
▁—	-3773
▁總	-3774
▁該	-3775
▁顧	-3776
▁馬	-3777
一段	-3778
一間	-3779
不怕	-3780
主人	-3781
主機	-3782
之內	-3783
做為	-3784
入住	-3785
力和	-3786
同比	-3787
喫飯	-3788
在內	-3789
地圖	-3790
太空	-3791
奇怪	-3792
奧運	-3793
嬰兒	-3794
安靜	-3795
客運	-3796
幾分	-3797
強人	-3798
忘記	-3799
打點	-3800
掌控	-3801
排除	-3802
損害	-3803
搖頭	-3804
政黨	-3805
新型	-3806
是對	-3807
果然	-3808
某個	-3809
歲月	-3810
民進	-3811
氣象	-3812
海軍	-3813
溝齒	-3814
潤滑	-3815
無奈	-3816
瓦解	-3817
發電	-3818
競賽	-3819
聊天	-3820
落的	-3821
葉辰	-3822
蔬菜	-3823
藍色	-3824
講話	-3825
警方	-3826
走向	-3827
近年	-3828
道德	-3829
陳然	-3830
集體	-3831
雲端	-3832
電氣	-3833
風味	-3834
體制	-3835
體會	-3836
高層	-3837
高校	-3838
ies	-3839
▁這些	-3840
忍不住	-3841
房地產	-3842
有許多	-3843
李世民	-3844
模特兒	-3845
的國家	-3846
的聲音	-3847
科學家	-3848
穩定性	-3849
被稱為	-3850
製造商	-3851
面積為	-3852
應用程式	-3853
ht	-3854
rm	-3855
ss	-3856
▁·	-3857
▁每	-3858
▁陸	-3859
。。	-3860
一百	-3861
不勝	-3862
不安	-3863
不容	-3864
不復	-3865
世的	-3866
並無	-3867
之上	-3868
乾坤	-3869
以往	-3870
修煉	-3871
全身	-3872
兩岸	-3873
共享	-3874
共識	-3875
前進	-3876
動了	-3877
動靜	-3878
勝利	-3879
去除	-3880
哈爾	-3881
嘉義	-3882
國王	-3883
場地	-3884
大使	-3885
太子	-3886
專屬	-3887
就被	-3888
山的	-3889
州的	-3890
差距	-3891
常規	-3892
平常	-3893
年底	-3894
年至	-3895
幹部	-3896
影音	-3897
微信	-3898
我都	-3899
戰士	-3900
手工	-3901
掃描	-3902
擔當	-3903
放入	-3904
數學	-3905
新疆	-3906
普查	-3907
替代	-3908
李慕	-3909
業主	-3910
業經	-3911
水中	-3912
江蘇	-3913
浮現	-3914
溫泉	-3915
溫馨	-3916
演講	-3917
為此	-3918
照明	-3919
發言	-3920
的家	-3921
的變	-3922
監察	-3923
眼中	-3924
私人	-3925
端的	-3926
等地	-3927
簡介	-3928
羣島	-3929
老婆	-3930
考生	-3931
而起	-3932
著名	-3933
號碼	-3934
裡頭	-3935
試圖	-3936
談判	-3937
讀書	-3938
負擔	-3939
身後	-3940
辛苦	-3941
這片	-3942
違反	-3943
開設	-3944
電器	-3945
馬拉	-3946
ISO	-3947
ord	-3948
▁In	-3949
▁一般	-3950
▁作為	-3951
▁小時	-3952
▁香港	-3953
出現了	-3954
受歡迎	-3955
在臺灣	-3956
基金會	-3957
是為了	-3958
是非常	-3959
民進黨	-3960
溝齒鼩	-3961
的形式	-3962
目的是	-3963
笑了笑	-3964
與征服	-3965
計算機	-3966
這時候	-3967
需要的	-3968
環球小姐	-3969
看了一眼	-3970
除此之外	-3971
BC	-3972
ma	-3973
ud	-3974
▁正	-3975
一帶	-3976
一是	-3977
三大	-3978
並於	-3979
主力	-3980
主導	-3981
了個	-3982
五個	-3983
五大	-3984
人人	-3985
他不	-3986
伊斯	-3987
佈置	-3988
何以	-3989
佼佼	-3990
信仰	-3991
修道	-3992
俱樂	-3993
儀式	-3994
兩年	-3995
兩次	-3996
出售	-3997
受訪	-3998
告知	-3999
城鎮	-4000
報業	-4001
場合	-4002
宣告	-4003
專用	-4004
對你	-4005
帶有	-4006
強制	-4007
快捷	-4008
採訪	-4009
提取	-4010
日前	-4011
日至	-4012
星的	-4013
暫停	-4014
東方	-4015
林葉	-4016
樂觀	-4017
決議	-4018
沈風	-4019
法的	-4020
涵蓋	-4021
滲透	-4022
漂亮	-4023
激烈	-4024
熱門	-4025
癌症	-4026
的聲	-4027
的頭	-4028
節點	-4029
簽訂	-4030
結論	-4031
美好	-4032
羣體	-4033
聯系	-4034
職工	-4035
著作	-4036
蒙古	-4037
行李	-4038
西北	-4039
要做	-4040
要有	-4041
觀賞	-4042
解除	-4043
走去	-4044
路上	-4045
身爲	-4046
輾轉	-4047
轉載	-4048
這座	-4049
進程	-4050
遵循	-4051
還原	-4052
重複	-4053
鏈接	-4054
陰陽	-4055
雖說	-4056
雲南	-4057
順序	-4058
領袖	-4059
食材	-4060
馬克	-4061
體重	-4062
點擊	-4063
黨建	-4064
ant	-4065
ice	-4066
▁Re	-4067
▁當然	-4068
候選人	-4069
大規模	-4070
客戶的	-4071
想不到	-4072
我覺得	-4073
提出的	-4074
日本的	-4075
是否有	-4076
有時候	-4077
沒什麼	-4078
這一來	-4079
電視臺	-4080
領導人	-4081
ixel	-4082
、、、、	-4083
使用壽命	-4084
合作夥伴	-4085
我們可以	-4086
文明與征服	-4087
US	-4088
aa	-4089
ox	-4090
▁*	-4091
▁因	-4092
▁或	-4093
▁由	-4094
一味	-4095
一絲	-4096
一經	-4097
一行	-4098
上漲	-4099
下跌	-4100
不妨	-4101
之心	-4102
之路	-4103
事的	-4104
交付	-4105
亦是	-4106
作家	-4107
修持	-4108
倫敦	-4109
健身	-4110
剎那	-4111
創立	-4112
助理	-4113
區塊	-4114
十大	-4115
協同	-4116
各有	-4117
商家	-4118
回頭	-4119
奮鬥	-4120
好多	-4121
如許	-4122
實用	-4123
實的	-4124
對其	-4125
師兄	-4126
師的	-4127
帳號	-4128
幾位	-4129
庸中	-4130
必定	-4131
必然	-4132
情報	-4133
戶外	-4134
所屬	-4135
捐贈	-4136
提示	-4137
擴展	-4138
攜帶	-4139
支出	-4140
於一	-4141
旋轉	-4142
早上	-4143
春節	-4144
是大	-4145
普及	-4146
會是	-4147
格式	-4148
權威	-4149
水質	-4150
湖南	-4151
澳洲	-4152
牙齒	-4153
獎項	-4154
率先	-4155
王主	-4156
生日	-4157
的熱	-4158
相機	-4159
研討	-4160
移工	-4161
第六	-4162
總理	-4163
聚焦	-4164
聰明	-4165
脫離	-4166
自治	-4167
興建	-4168
苦行	-4169
荷蘭	-4170
製的	-4171
該國	-4172
說過	-4173
起身	-4174
迪士	-4175
錯過	-4176
阿爾	-4177
陳曦	-4178
隊的	-4179
雷達	-4180
電商	-4181
領取	-4182
首肯	-4183
魅力	-4184
ack	-4185
our	-4186
ows	-4187
▁on	-4188
一個月	-4189
一定會	-4190
俱樂部	-4191
傳統的	-4192
優質的	-4193
已經有	-4194
我們要	-4195
是一款	-4196
東南亞	-4197
的態度	-4198
的精神	-4199
的關鍵	-4200
藝術家	-4201
庸中佼佼	-4202
越來越多	-4203
人民共和國	-4204
Ch	-4205
ON	-4206
▁r	-4207
▁用	-4208
▁黑	-4209
一去	-4210
一日	-4211
上傳	-4212
不下	-4213
不已	-4214
二人	-4215
二次	-4216
亦有	-4217
今朝	-4218
以爲	-4219
佳麗	-4220
光是	-4221
全數	-4222
出國	-4223
出貨	-4224
分的	-4225
加密	-4226
危害	-4227
又有	-4228
友善	-4229
受傷	-4230
君主	-4231
和他	-4232
四海	-4233
在線	-4234
塗層	-4235
境界	-4236
外出	-4237
外國	-4238
大批	-4239
好奇	-4240
好評	-4241
密切	-4242
實時	-4243
將他	-4244
屬性	-4245
廢氣	-4246
形的	-4247
影視	-4248
後頭	-4249
復興	-4250
忘了	-4251
我看	-4252
我還	-4253
拉斯	-4254
探討	-4255
搖了	-4256
改進	-4257
時段	-4258
暫時	-4259
武裝	-4260
水準	-4261
消滅	-4262
清水	-4263
湧現	-4264
然無	-4265
煩惱	-4266
營造	-4267
爺爺	-4268
爾後	-4269
版的	-4270
特質	-4271
率為	-4272
王子	-4273
生成	-4274
申報	-4275
發佈	-4276
的多	-4277
看似	-4278
縱令	-4279
美洲	-4280
而去	-4281
而被	-4282
職責	-4283
腦袋	-4284
自各	-4285
處置	-4286
處處	-4287
言語	-4288
該當	-4289
貨物	-4290
資質	-4291
賦予	-4292
走的	-4293
較大	-4294
農民	-4295
釋出	-4296
金錢	-4297
隱藏	-4298
零件	-4299
雷諾	-4300
養殖	-4301
餘的	-4302
香氣	-4303
體積	-4304
高端	-4305
all	-4306
▁,“	-4307
▁可以	-4308
▁此外	-4309
▁葉辰	-4310
不錯的	-4311
了起來	-4312
各樣的	-4313
國內外	-4314
在使用	-4315
增加了	-4316
太陽能	-4317
有些人	-4318
演算法	-4319
獨特的	-4320
發生了	-4321
百家樂	-4322
的服務	-4323
相較於	-4324
臺北市	-4325
要注意	-4326
迪士尼	-4327
基礎設施	-4328
indows	-4329
▁Google	-4330
%;	-4331
CD	-4332
IG	-4333
TV	-4334
kg	-4335
ug	-4336
up	-4337
▁|	-4338
▁來	-4339
▁六	-4340
▁楊	-4341
▁黃	-4342
一塊	-4343
一的	-4344
乃至	-4345
仍是	-4346
低溫	-4347
佔地	-4348
你能	-4349
使其	-4350
供給	-4351
全家	-4352
再者	-4353
冬季	-4354
出門	-4355
分開	-4356
力度	-4357
千年	-4358
卓越	-4359
博物	-4360
和的	-4361
哪怕	-4362
唯有	-4363
單人	-4364
回覆	-4365
圓滿	-4366
在本	-4367
域的	-4368
大致	-4369
大道	-4370
女生	-4371
家中	-4372
容量	-4373
實地	-4374
尊者	-4375
就連	-4376
山脈	-4377
師父	-4378
平靜	-4379
平面	-4380
形容	-4381
情感	-4382
想了	-4383
想過	-4384
憤怒	-4385
我有	-4386
戰場	-4387
手動	-4388
方位	-4389
旅館	-4390
早餐	-4391
明天	-4392
明年	-4393
服用	-4394
框架	-4395
檢視	-4396
武道	-4397
殺人	-4398
決心	-4399
沖擊	-4400
法定	-4401
注重	-4402
源於	-4403
溫暖	-4404
無意	-4405
煙雲	-4406
物種	-4407
發覺	-4408
的下	-4409
眼鏡	-4410
禮物	-4411
種子	-4412
等於	-4413
納入	-4414
緩緩	-4415
繁枝	-4416
聖誕	-4417
自在	-4418
臺東	-4419
花蓮	-4420
茶葉	-4421
蘇雲	-4422
解放	-4423
許七	-4424
詳情	-4425
誕生	-4426
警告	-4427
賽季	-4428
足以	-4429
身影	-4430
身心	-4431
轉向	-4432
週末	-4433
過多	-4434
過眼	-4435
選購	-4436
邊緣	-4437
醫藥	-4438
開車	-4439
關懷	-4440
除塵	-4441
隱私	-4442
震驚	-4443
頭髮	-4444
頷首	-4445
魔族	-4446
ess	-4447
▁by	-4448
▁wh	-4449
▁、“	-4450
▁分鐘	-4451
▁說到	-4452
一方面	-4453
下來的	-4454
再就是	-4455
喜歡的	-4456
大數據	-4457
彭必炎	-4458
得到了	-4459
戴口罩	-4460
會不會	-4461
有效的	-4462
未來的	-4463
活動的	-4464
班雅明	-4465
祕書長	-4466
競爭力	-4467
行業的	-4468
許多人	-4469
足夠的	-4470
阿拉伯	-4471
點點頭	-4472
的過程中	-4473
▁Model	-4474
中華人民共和國	-4475
GB	-4476
PC	-4477
▁”	-4478
▁只	-4479
▁長	-4480
一如	-4481
一心	-4482
一道	-4483
一陣	-4484
三位	-4485
下手	-4486
不動	-4487
中學	-4488
丹妮	-4489
主流	-4490
久的	-4491
事物	-4492
人氣	-4493
人為	-4494
人羣	-4495
住民	-4496
依靠	-4497
個案	-4498
內地	-4499
兩者	-4500
出血	-4501
利潤	-4502
加州	-4503
化作	-4504
十七	-4505
卻不	-4506
厲害	-4507
去做	-4508
口感	-4509
古代	-4510
可用	-4511
史上	-4512
售價	-4513
問起	-4514
圈子	-4515
國會	-4516
太太	-4517
宗旨	-4518
審核	-4519
對外	-4520
少的	-4521
就來	-4522
就越	-4523
尼斯	-4524
巴西	-4525
平地	-4526
平穩	-4527
形勢	-4528
慈善	-4529
手上	-4530
手法	-4531
拍賣	-4532
擴散	-4533
擺脫	-4534
敵人	-4535
景象	-4536
書中	-4537
會長	-4538
業已	-4539
業的	-4540
極度	-4541
樂團	-4542
標誌	-4543
氣息	-4544
渠道	-4545
為您	-4546
生死	-4547
當代	-4548
當你	-4549
病例	-4550
百貨	-4551
的行	-4552
看出	-4553
看法	-4554
睡覺	-4555
硬度	-4556
立委	-4557
竟自	-4558
答應	-4559
算得	-4560
節省	-4561
結局	-4562
聽聞	-4563
股價	-4564
能否	-4565
膽敢	-4566
舉世	-4567
芬蘭	-4568
華為	-4569
華的	-4570
落後	-4571
虛擬	-4572
街頭	-4573
裏面	-4574
襲擊	-4575
貝爾	-4576
負載	-4577
買賣	-4578
起的	-4579
逝世	-4580
重力	-4581
鋼鐵	-4582
青春	-4583
頂級	-4584
首席	-4585
騎士	-4586
麵包	-4587
ity	-4588
▁他的	-4589
▁萬人	-4590
▁還有	-4591
▁關於	-4592
也不是	-4593
博物館	-4594
只需要	-4595
基督教	-4596
完整的	-4597
成功的	-4598
新臺幣	-4599
是中國	-4600
的位置	-4601
的數據	-4602
看了看	-4603
研究所	-4604
第二次	-4605
許七安	-4606
造成的	-4607
▁下一篇	-4608
▁萬美元	-4609
售後服務	-4610
最重要的	-4611
沒有任何	-4612
Google	-4613
AA	-4614
ER	-4615
IT	-4616
ne	-4617
”“	-4618
▁y	-4619
▁同	-4620
▁您	-4621
▁江	-4622
▁海	-4623
一羣	-4624
上限	-4625
不去	-4626
乘客	-4627
人與	-4628
仍在	-4629
佔比	-4630
何況	-4631
修士	-4632
修爲	-4633
假期	-4634
債券	-4635
克服	-4636
公益	-4637
典型	-4638
再來	-4639
加以	-4640
去找	-4641
反之	-4642
可謂	-4643
司法	-4644
否認	-4645
和氣	-4646
喫到	-4647
噪音	-4648
在上	-4649
報警	-4650
大廈	-4651
太大	-4652
如有	-4653
妹妹	-4654
姿勢	-4655
子女	-4656
家裡	-4657
尋常	-4658
小型	-4659
小學	-4660
就很	-4661
差錯	-4662
平板	-4663
幸運	-4664
店的	-4665
強勢	-4666
影兒	-4667
從頭	-4668
微笑	-4669
心態	-4670
愛爾	-4671
戲劇	-4672
提及	-4673
提問	-4674
搭建	-4675
文物	-4676
旁的	-4677
晶體	-4678
更大	-4679
最為	-4680
查看	-4681
校區	-4682
桃園	-4683
機能	-4684
止觀	-4685
比亞	-4686
民宿	-4687
沒人	-4688
河北	-4689
清除	-4690
湖北	-4691
溫柔	-4692
熱烈	-4693
獲利	-4694
的分	-4695
的反	-4696
看待	-4697
破碎	-4698
精心	-4699
細菌	-4700
終端	-4701
絕緣	-4702
線下	-4703
線條	-4704
縮短	-4705
美觀	-4706
老大	-4707
老頭	-4708
耐用	-4709
蘇聯	-4710
融入	-4711
角落	-4712
解析	-4713
語的	-4714
說完	-4715
車間	-4716
辦事	-4717
退出	-4718
這兒	-4719
這對	-4720
金色	-4721
門市	-4722
難度	-4723
電網	-4724
電路	-4725
首度	-4726
首都	-4727
體內	-4728
高峯	-4729
鴻海	-4730
默默	-4731
ber	-4732
end	-4733
ive	-4734
▁同時	-4735
▁至於	-4736
主要的	-4737
價值觀	-4738
加爾湖	-4739
化妝品	-4740
半空中	-4741
原材料	-4742
多年來	-4743
就已經	-4744
應用於	-4745
投資者	-4746
採用了	-4747
敘利亞	-4748
是如何	-4749
更大的	-4750
有利於	-4751
為客戶	-4752
現如今	-4753
的不同	-4754
的力量	-4755
的市場	-4756
的目標	-4757
的相關	-4758
的過程	-4759
葉三伏	-4760
著名的	-4761
這句話	-4762
貝加爾湖	-4763
EN	-4764
fl	-4765
if	-4766
iv	-4767
▁&	-4768
▁劉	-4769
。“	-4770
一口	-4771
一手	-4772
一時	-4773
一波	-4774
三百	-4775
不讓	-4776
不開	-4777
並將	-4778
中部	-4779
也未	-4780
介質	-4781
代價	-4782
便於	-4783
傳動	-4784
優越	-4785
光的	-4786
光線	-4787
全會	-4788
冬天	-4789
初步	-4790
到處	-4791
劍修	-4792
北市	-4793
即若	-4794
同志	-4795
命名	-4796
四周	-4797
回饋	-4798
增添	-4799
大賽	-4800
天空	-4801
她是	-4802
如故	-4803
完了	-4804
容許	-4805
寶石	-4806
帳戶	-4807
店鋪	-4808
廢水	-4809
建構	-4810
引入	-4811
性格	-4812
情的	-4813
想必	-4814
想起	-4815
成人	-4816
成型	-4817
手續	-4818
抗議	-4819
拍照	-4820
排行	-4821
推行	-4822
收納	-4823
攸關	-4824
改成	-4825
新年	-4826
既是	-4827
日益	-4828
早晚	-4829
有過	-4830
條約	-4831
正泰	-4832
氣氛	-4833
演唱	-4834
潛力	-4835
潛在	-4836
為一	-4837
為人	-4838
無窮	-4839
燃燒	-4840
版權	-4841
物資	-4842
獨家	-4843
玩意	-4844
用了	-4845
當成	-4846
當我	-4847
發了	-4848
的臉	-4849
的說	-4850
的起	-4851
眉頭	-4852
祕境	-4853
種族	-4854
等到	-4855
約翰	-4856
素質	-4857
終止	-4858
缺點	-4859
股東	-4860
著手	-4861
血液	-4862
衆人	-4863
視角	-4864
解答	-4865
許可	-4866
診斷	-4867
話題	-4868
車主	-4869
途徑	-4870
長大	-4871
開拓	-4872
雙眼	-4873
頂尖	-4874
驚喜	-4875
魯魚	-4876
ans	-4877
ire	-4878
ith	-4879
ouT	-4880
▁億元	-4881
一部分	-4882
丹妮婭	-4883
也是一	-4884
區塊鏈	-4885
可以用	-4886
唯一的	-4887
問題的	-4888
在他的	-4889
存在的	-4890
平方米	-4891
必須要	-4892
意識到	-4893
我們將	-4894
新能源	-4895
有不少	-4896
有可能	-4897
本網站	-4898
的情形	-4899
真的是	-4900
範圍內	-4901
聖阿斯	-4902
雷諾茲	-4903
青少年	-4904
▁Mal	-4905
▁pol	-4906
儘管如此	-4907
聖阿斯捷	-4908
ypixel	-4909
▁Neoverse	-4910
AT	-4911
EO	-4912
ov	-4913
ts	-4914
ux	-4915
▁Z	-4916
▁則	-4917
▁周	-4918
▁更	-4919
▁會	-4920
▁神	-4921
▁龍	-4922
一動	-4923
一派	-4924
一處	-4925
一項	-4926
上是	-4927
不自	-4928
不變	-4929
中式	-4930
也無	-4931
你也	-4932
保溫	-4933
傳出	-4934
傳媒	-4935
元件	-4936
先頭	-4937
公子	-4938
再不	-4939
再生	-4940
列入	-4941
動手	-4942
十字	-4943
千里	-4944
向來	-4945
呵呵	-4946
和大	-4947
哲學	-4948
在二	-4949
地上	-4950
大地	-4951
好友	-4952
完好	-4953
宗門	-4954
客廳	-4955
寫作	-4956
少許	-4957
就此	-4958
工會	-4959
幹擾	-4960
座位	-4961
建成	-4962
律賓	-4963
後期	-4964
徑直	-4965
得住	-4966
從小	-4967
復雜	-4968
志願	-4969
想的	-4970
感觸	-4971
所能	-4972
拆除	-4973
擴充	-4974
收錄	-4975
敏感	-4976
文藝	-4977
既往	-4978
星空	-4979
是你	-4980
是很	-4981
更快	-4982
服飾	-4983
望着	-4984
期限	-4985
構造	-4986
正面	-4987
民生	-4988
深處	-4989
清爽	-4990
減速	-4991
滿滿	-4992
熱愛	-4993
熱鬧	-4994
片段	-4995
王峯	-4996
王朝	-4997
登入	-4998
登錄	-4999
的全	-5000
的自	-5001
看去	-5002
短短	-5003
碰撞	-5004
競選	-5005
精確	-5006
精緻	-5007
終究	-5008
給人	-5009
經由	-5010
緩慢	-5011
缺陷	-5012
美味	-5013
美術	-5014
而下	-5015
聚會	-5016
職能	-5017
聽了	-5018
蘇銳	-5019
被迫	-5020
補助	-5021
補貼	-5022
試試	-5023
誇大	-5024
誤差	-5025
說到	-5026
這家	-5027
週一	-5028
遠離	-5029
那兒	-5030
長者	-5031
長達	-5032
門口	-5033
附加	-5034
陌生	-5035
隨機	-5036
雲散	-5037
非洲	-5038
顯現	-5039
養老	-5040
馬來	-5041
AET	-5042
amp	-5043
ill	-5044
ome	-5045
ram	-5046
ure	-5047
一定的	-5048
一般的	-5049
不斷的	-5050
了他的	-5051
人民幣	-5052
公務員	-5053
創辦人	-5054
在一個	-5055
場比賽	-5056
外交部	-5057
就是說	-5058
市政府	-5059
必要的	-5060
成立於	-5061
投資人	-5062
推出的	-5063
數字化	-5064
文化的	-5065
是位於	-5066
會出現	-5067
有關的	-5068
的所有	-5069
的狀況	-5070
的經濟	-5071
相同的	-5072
菲律賓	-5073
行政區	-5074
運動會	-5075
馬拉松	-5076
▁CSS	-5077
即使如此	-5078
政治人物	-5079
▁that	-5080
中國共產黨	-5081
GO	-5082
St	-5083
cm	-5084
▁九	-5085
▁家	-5086
▁東	-5087
▁條	-5088
▁莫	-5089
一律	-5090
一生	-5091
一身	-5092
一面	-5093
三分	-5094
上網	-5095
不懂	-5096
之主	-5097
之事	-5098
之氣	-5099
之法	-5100
之色	-5101
事宜	-5102
他對	-5103
代替	-5104
代謝	-5105
任意	-5106
何等	-5107
作戰	-5108
僅有	-5109
僱主	-5110
元的	-5111
先天	-5112
全臺	-5113
出人	-5114
出色	-5115
刊登	-5116
列為	-5117
前衛	-5118
創建	-5119
勁兒	-5120
即或	-5121
厚度	-5122
口味	-5123
哪樣	-5124
問及	-5125
單身	-5126
四年	-5127
土壤	-5128
在其	-5129
地帶	-5130
地道	-5131
地鐵	-5132
垂直	-5133
場面	-5134
墨西	-5135
如林	-5136
婚禮	-5137
子上	-5138
家屬	-5139
尷尬	-5140
島的	-5141
庫存	-5142
張任	-5143
得了	-5144
性別	-5145
情境	-5146
惡劣	-5147
批准	-5148
拜登	-5149
收藏	-5150
放大	-5151
旨在	-5152
暴力	-5153
書籍	-5154
機組	-5155
歐美	-5156
正好	-5157
殺死	-5158
毫不	-5159
水分	-5160
法蘭	-5161
波動	-5162
波蘭	-5163
活性	-5164
流傳	-5165
浪漫	-5166
消毒	-5167
減輕	-5168
為你	-5169
照樣	-5170
玩具	-5171
用品	-5172
用心	-5173
略微	-5174
的無	-5175
的肉	-5176
眾人	-5177
睡眠	-5178
磨損	-5179
租賃	-5180
窩口	-5181
粉碎	-5182
維爾	-5183
縮小	-5184
老公	-5185
而有	-5186
若有	-5187
葡萄	-5188
藥品	-5189
螺旋	-5190
要去	-5191
見證	-5192
解讀	-5193
訂閱	-5194
記載	-5195
誠信	-5196
贊助	-5197
起訴	-5198
路口	-5199
身價	-5200
車廠	-5201
車的	-5202
輕易	-5203
轉身	-5204
連線	-5205
還可	-5206
那時	-5207
鄰近	-5208
隨意	-5209
雕塑	-5210
非同	-5211
面目	-5212
養生	-5213
首爾	-5214
驚訝	-5215
齊全	-5216
ast	-5217
ine	-5218
las	-5219
ust	-5220
wit	-5221
▁Pl	-5222
▁de	-5223
▁最近	-5224
▁針對	-5225
一系列	-5226
了下來	-5227
他們在	-5228
全新的	-5229
別人的	-5230
可持續	-5231
基督徒	-5232
墨西哥	-5233
天然氣	-5234
工作室	-5235
指的是	-5236
更容易	-5237
最高的	-5238
會造成	-5239
有點兒	-5240
為自己	-5241
獲得了	-5242
現代化	-5243
的狀態	-5244
的看着	-5245
的速度	-5246
組織的	-5247
背後的	-5248
自各兒	-5249
菩薩曰	-5250
該怎麼	-5251
認為是	-5252
高品質	-5253
龐大的	-5254
aceb	-5255
lect	-5256
可以看到	-5257
社羣媒體	-5258
馬來西亞	-5259
ouTube	-5260
:,	-5261
FT	-5262
iz	-5263
▁–	-5264
▁羅	-5265
▁蕭	-5266
一向	-5267
一團	-5268
一層	-5269
上萬	-5270
不離	-5271
並以	-5272
了我	-5273
交互	-5274
交叉	-5275
但不	-5276
何如	-5277
你了	-5278
你有	-5279
保安	-5280
信賴	-5281
偏向	-5282
分成	-5283
切換	-5284
劍道	-5285
務必	-5286
南北	-5287
取決	-5288
司機	-5289
國中	-5290
城區	-5291
報價	-5292
堵塞	-5293
多項	-5294
子墨	-5295
守護	-5296
密的	-5297
實則	-5298
實屬	-5299
導入	-5300
小鎮	-5301
崽子	-5302
希臘	-5303
年在	-5304
度假	-5305
心得	-5306
志工	-5307
恆星	-5308
應急	-5309
懷孕	-5310
成品	-5311
我去	-5312
手裡	-5313
接待	-5314
數十	-5315
料到	-5316
新人	-5317
日圓	-5318
星體	-5319
是多	-5320
最先	-5321
東部	-5322
林羽	-5323
標記	-5324
模糊	-5325
樹脂	-5326
機遇	-5327
款式	-5328
正當	-5329
正規	-5330
此前	-5331
活躍	-5332
流失	-5333
消化	-5334
淡淡	-5335
深受	-5336
焦慮	-5337
爆炸	-5338
爸媽	-5339
特地	-5340
現行	-5341
理會	-5342
用水	-5343
疲勞	-5344
疼痛	-5345
發送	-5346
的清	-5347
的生	-5348
的的	-5349
皆是	-5350
相差	-5351
眼的	-5352
石頭	-5353
神情	-5354
筆者	-5355
管控	-5356
經紀	-5357
緣故	-5358
編織	-5359
總裁	-5360
繁榮	-5361
罪惡	-5362
而這	-5363
聯賽	-5364
膨脹	-5365
興奮	-5366
蒐集	-5367
行駛	-5368
裏的	-5369
複製	-5370
評審	-5371
課堂	-5372
證實	-5373
變的	-5374
變頻	-5375
貴州	-5376
賠償	-5377
起初	-5378
路段	-5379
軍方	-5380
農藥	-5381
近似	-5382
進攻	-5383
過分	-5384
過錯	-5385
遭遇	-5386
遺傳	-5387
還真	-5388
錄音	-5389
鑄鐵	-5390
門窗	-5391
開門	-5392
防腐	-5393
雙邊	-5394
韌性	-5395
頭上	-5396
題材	-5397
體質	-5398
高等	-5399
高興	-5400
!!”	-5401
INE	-5402
ark	-5403
ate	-5404
▁一個	-5405
▁技術	-5406
▁日本	-5407
▁此時	-5408
▁秦塵	-5409
▁而且	-5410
個人的	-5411
停車場	-5412
先進的	-5413
再加上	-5414
出了一	-5415
分別是	-5416
分析師	-5417
創新的	-5418
可以讓	-5419
嚴重的	-5420
大自然	-5421
安全性	-5422
差不多	-5423
已經在	-5424
感興趣	-5425
新技術	-5426
為大家	-5427
現在時	-5428
當地的	-5429
發行的	-5430
的就是	-5431
的應用	-5432
的歷史	-5433
的遊戲	-5434
網路上	-5435
這一點	-5436
▁CPU	-5437
▁上一篇	-5438
▁安格爾	-5439
▁左小多	-5440
▁為什麼	-5441
強手如林	-5442
負責管轄	-5443
高質量發展	-5444
Hypixel	-5445
acebook	-5446
........	-5447
Al	-5448
BA	-5449
DP	-5450
MI	-5451
pt	-5452
▁=	-5453
▁按	-5454
▁趙	-5455
▁達	-5456
一世	-5457
一再	-5458
一千	-5459
一套	-5460
一戰	-5461
一款	-5462
一週	-5463
三角	-5464
不甘	-5465
不該	-5466
世衛	-5467
之聲	-5468
乙烯	-5469
事兒	-5470
事前	-5471
五百	-5472
些微	-5473
些許	-5474
人是	-5475
企圖	-5476
但她	-5477
何許	-5478
供電	-5479
便捷	-5480
俄國	-5481
修訂	-5482
兩天	-5483
冶金	-5484
分解	-5485
劍氣	-5486
助力	-5487
勢必	-5488
升降	-5489
原子	-5490
參選	-5491
友好	-5492
可怕	-5493
可知	-5494
各界	-5495
咋樣	-5496
和好	-5497
哪邊	-5498
喫了	-5499
喬治	-5500
回歸	-5501
城堡	-5502
塗料	-5503
外面	-5504
夜空	-5505
大腦	-5506
她在	-5507
姐姐	-5508
姿態	-5509
存款	-5510
宗主	-5511
察覺	-5512
寵物	-5513
專項	-5514
對付	-5515
導師	-5516
就沒	-5517
屋頂	-5518
層面	-5519
幫你	-5520
年初	-5521
年起	-5522
座的	-5523
強迫	-5524
往來	-5525
從中	-5526
忽然	-5527
性質	-5528
愛好	-5529
成都	-5530
抓住	-5531
拿來	-5532
採集	-5533
接到	-5534
撰寫	-5535
故意	-5536
故此	-5537
斯科	-5538
方針	-5539
是天	-5540
是的	-5541
是被	-5542
時空	-5543
晚間	-5544
更改	-5545
書店	-5546
最快	-5547
有意	-5548
本土	-5549
東流	-5550
板塊	-5551
極其	-5552
標題	-5553
樹木	-5554
機牀	-5555
民營	-5556
沒說	-5557
沙發	-5558
注入	-5559
注目	-5560
活力	-5561
海域	-5562
深化	-5563
渴望	-5564
濃度	-5565
烘乾	-5566
無力	-5567
無須	-5568
王的	-5569
現狀	-5570
球迷	-5571
瑞典	-5572
的海	-5573
的真	-5574
直白	-5575
瞬息	-5576
碩士	-5577
碰到	-5578
福建	-5579
秋波	-5580
積累	-5581
穿越	-5582
符文	-5583
策劃	-5584
緊密	-5585
緬甸	-5586
而今	-5587
聞言	-5588
職位	-5589
職務	-5590
肩膀	-5591
若干	-5592
草莓	-5593
行了	-5594
裝有	-5595
製成	-5596
要將	-5597
言之	-5598
評選	-5599
說出	-5600
質感	-5601
走進	-5602
跟隨	-5603
遭受	-5604
選美	-5605
門子	-5606
隻能	-5607
難免	-5608
青海	-5609
頭部	-5610
風景	-5611
首要	-5612
龍族	-5613
APP	-5614
age	-5615
ond	-5616
ong	-5617
▁兩人	-5618
▁公里	-5619
▁可是	-5620
▁李慕	-5621
▁沈落	-5622
▁通過	-5623
一直在	-5624
不管是	-5625
也開始	-5626
來自於	-5627
分別為	-5628
功能的	-5629
同樣的	-5630
多年的	-5631
娛樂城	-5632
子公司	-5633
或其他	-5634
明顯的	-5635
有一種	-5636
有人說	-5637
本身的	-5638
的意思	-5639
的意義	-5640
的標準	-5641
的消息	-5642
的需求	-5643
研究院	-5644
第二個	-5645
等方面	-5646
而來的	-5647
萬美元	-5648
誇大自	-5649
那麼樣	-5650
開發的	-5651
類型的	-5652
什麼時候	-5653
可以使用	-5654
可以通過	-5655
消費者的	-5656
這個問題	-5657
▁with	-5658
",	-5659
sh	-5660
▁#	-5661
▁單	-5662
▁圖	-5663
▁很	-5664
▁後	-5665
▁方	-5666
▁次	-5667
▁美	-5668
▁西	-5669
一分	-5670
一腳	-5671
一顆	-5672
上課	-5673
不便	-5674
不外	-5675
不解	-5676
世人	-5677
世嘉	-5678
中所	-5679
予以	-5680
交給	-5681
他又	-5682
佔據	-5683
你這	-5684
依賴	-5685
偏偏	-5686
催化	-5687
傳說	-5688
入侵	-5689
入手	-5690
入門	-5691
六個	-5692
冰釋	-5693
前景	-5694
厚的	-5695
去世	-5696
又能	-5697
只在	-5698
可不	-5699
可行	-5700
同期	-5701
回復	-5702
回過	-5703
在哪	-5704
地板	-5705
失智	-5706
好似	-5707
客服	-5708
宿舍	-5709
將這	-5710
對了	-5711
導彈	-5712
小我	-5713
局面	-5714
屏幕	-5715
已婚	-5716
已被	-5717
幾種	-5718
座談	-5719
廢棄	-5720
強勁	-5721
後果	-5722
得很	-5723
從不	-5724
忽視	-5725
想想	-5726
想着	-5727
意志	-5728
承包	-5729
拿出	-5730
挪威	-5731
排水	-5732
接口	-5733
提起	-5734
揭露	-5735
擊敗	-5736
攝取	-5737
施打	-5738
是把	-5739
時常	-5740
時辰	-5741
曝光	-5742
本尊	-5743
極為	-5744
極限	-5745
榮譽	-5746
模板	-5747
橫宇	-5748
正如	-5749
殺害	-5750
江湖	-5751
法官	-5752
法案	-5753
派出	-5754
消亡	-5755
瀝青	-5756
無所	-5757
牛肉	-5758
玉米	-5759
王國	-5760
王騰	-5761
留言	-5762
的發	-5763
的白	-5764
相片	-5765
看好	-5766
確立	-5767
祝福	-5768
科的	-5769
立體	-5770
站的	-5771
笑著	-5772
節日	-5773
精力	-5774
總會	-5775
總的	-5776
聽說	-5777
臨牀	-5778
興起	-5779
航班	-5780
花了	-5781
葉玄	-5782
蘇平	-5783
行情	-5784
裝的	-5785
要麼	-5786
調試	-5787
講述	-5788
議院	-5789
走在	-5790
走廊	-5791
跟他	-5792
送到	-5793
這條	-5794
這羣	-5795
過往	-5796
道歉	-5797
還得	-5798
配料	-5799
里程	-5800
門檻	-5801
閃過	-5802
隻有	-5803
頭來	-5804
顯露	-5805
體悟	-5806
高麗	-5807
魔神	-5808
MOD	-5809
ain	-5810
ian	-5811
ore	-5812
▁AP	-5813
▁以及	-5814
▁大家	-5815
▁林逸	-5816
▁系列	-5817
▁透過	-5818
不僅是	-5819
不論是	-5820
二氧化	-5821
交易所	-5822
什麼樣	-5823
信用卡	-5824
共同體	-5825
加入了	-5826
在全球	-5827
在香港	-5828
大窩口	-5829
它們的	-5830
完善的	-5831
小朋友	-5832
工作者	-5833
已經是	-5834
我們就	-5835
我們會	-5836
指不定	-5837
提高了	-5838
是一家	-5839
是一座	-5840
更高的	-5841
沒有人	-5842
的一切	-5843
的信息	-5844
的存在	-5845
的現象	-5846
的表現	-5847
目前的	-5848
目標是	-5849
看上去	-5850
第一手	-5851
給大家	-5852
總書記	-5853
說不定	-5854
讓自己	-5855
身體的	-5856
這些人	-5857
遊戲的	-5858
非常的	-5859
form	-5860
inux	-5861
一段時間	-5862
人民政府	-5863
位於該國	-5864
好不容易	-5865
產品質量	-5866
AP	-5867
HO	-5868
In	-5869
NS	-5870
NT	-5871
RD	-5872
RO	-5873
SP	-5874
og	-5875
ok	-5876
▁.	-5877
▁※	-5878
▁倍	-5879
▁內	-5880
一筆	-5881
上前	-5882
上方	-5883
下車	-5884
中和	-5885
也曾	-5886
也讓	-5887
交往	-5888
亮的	-5889
人事	-5890
人性	-5891
人權	-5892
他曾	-5893
付款	-5894
低的	-5895
住房	-5896
保羅	-5897
信念	-5898
借款	-5899
備受	-5900
入圍	-5901
公安	-5902
兼具	-5903
出身	-5904
分割	-5905
切的	-5906
列表	-5907
到來	-5908
創下	-5909
北極	-5910
半空	-5911
協定	-5912
南極	-5913
南韓	-5914
原作	-5915
口中	-5916
合物	-5917
名詞	-5918
商機	-5919
困擾	-5920
國產	-5921
國立	-5922
土耳	-5923
在先	-5924
在她	-5925
堅決	-5926
多家	-5927
大氣	-5928
大海	-5929
大能	-5930
天花	-5931
如上	-5932
娃娃	-5933
媳婦	-5934
安徽	-5935
完工	-5936
完畢	-5937
宛如	-5938
宛然	-5939
將近	-5940
尊神	-5941
小子	-5942
師傅	-5943
師生	-5944
幫我	-5945
平等	-5946
幹凈	-5947
幾十	-5948
幾許	-5949
延遲	-5950
引用	-5951
復甦	-5952
意圖	-5953
應付	-5954
截止	-5955
投訴	-5956
拉克	-5957
拍板	-5958
招呼	-5959
招標	-5960
拿下	-5961
挖掘	-5962
捷運	-5963
掃盲	-5964
接着	-5965
搬到	-5966
搬家	-5967
支架	-5968
收取	-5969
整治	-5970
數以	-5971
數百	-5972
最有	-5973
會對	-5974
未經	-5975
東山	-5976
柔軟	-5977
桓範	-5978
歧視	-5979
水泥	-5980
永久	-5981
海中	-5982
溫室	-5983
溶劑	-5984
激發	-5985
灰塵	-5986
災難	-5987
無從	-5988
爾斯	-5989
猶豫	-5990
獲獎	-5991
理所	-5992
瑞士	-5993
痛感	-5994
發性	-5995
發熱	-5996
百濟	-5997
的內	-5998
的雙	-5999
的響	-6000
盛頓	-6001
盯著	-6002
相連	-6003
看過	-6004
眼波	-6005
眼眸	-6006
眾生	-6007
知情	-6008
研製	-6009
神祕	-6010
第七	-6011
管的	-6012
範疇	-6013
精密	-6014
絕不	-6015
聆聽	-6016
臉書	-6017
至關	-6018
與他	-6019
舉報	-6020
菩提	-6021
萬物	-6022
處在	-6023
要用	-6024
見的	-6025
見面	-6026
說得	-6027
變更	-6028
變遷	-6029
負面	-6030
買家	-6031
跟我	-6032
跨越	-6033
路徑	-6034
輔導	-6035
近乎	-6036
通信	-6037
過年	-6038
邊際	-6039
那天	-6040
鄉鎮	-6041
配送	-6042
釐清	-6043
金曼	-6044
錦標	-6045
長度	-6046
長遠	-6047
防禦	-6048
阻礙	-6049
陣陣	-6050
陶瓷	-6051
震撼	-6052
音響	-6053
頃刻	-6054
須要	-6055
預備	-6056
題目	-6057
額外	-6058
風暴	-6059
養成	-6060
點選	-6061
龐大	-6062
eta	-6063
ich	-6064
ick	-6065
ime	-6066
ork	-6067
sia	-6068
▁sh	-6069
▁un	-6070
▁其中	-6071
▁年的	-6072
▁李洛	-6073
▁產品	-6074
▁疫苗	-6075
▁而在	-6076
一體化	-6077
不怎麼	-6078
世界的	-6079
世界盃	-6080
伊斯蘭	-6081
但其實	-6082
做什麼	-6083
出現的	-6084
出生於	-6085
各地的	-6086
和服務	-6087
哈爾濱	-6088
因為它	-6089
土耳其	-6090
多少少	-6091
大學生	-6092
如果是	-6093
年美國	-6094
影響到	-6095
所說的	-6096
找不到	-6097
新時代	-6098
是一位	-6099
是一名	-6100
是怎麼	-6101
最新的	-6102
標準化	-6103
檢察官	-6104
每一位	-6105
爲什麼	-6106
理事長	-6107
生產線	-6108
畢業生	-6109
的人口	-6110
的女性	-6111
的想法	-6112
的成本	-6113
的規定	-6114
程度上	-6115
突如其	-6116
考慮到	-6117
自身的	-6118
華盛頓	-6119
還需要	-6120
那麼着	-6121
ight	-6122
itic	-6123
ment	-6124
一如既往	-6125
個人資料	-6126
工業設計	-6127
演演算法	-6128
集團公司	-6129
電子商務	-6130
電子郵件	-6131
▁Malay	-6132
%、	-6133
AC	-6134
BS	-6135
▁先	-6136
▁光	-6137
▁別	-6138
▁卡	-6139
▁即	-6140
▁問	-6141
▁外	-6142
▁夢	-6143
▁明	-6144
▁號	-6145
▁被	-6146
▁見	-6147
一支	-6148
一臺	-6149
一變	-6150
上門	-6151
下半	-6152
不宜	-6153
不時	-6154
不遠	-6155
中美	-6156
主意	-6157
主演	-6158
之旅	-6159
之類	-6160
也得	-6161
二年	-6162
他會	-6163
他都	-6164
佔領	-6165
侵權	-6166
便會	-6167
個兒	-6168
個體	-6169
假日	-6170
偏離	-6171
偶爾	-6172
催動	-6173
傳奇	-6174
入境	-6175
內有	-6176
全民	-6177
全程	-6178
八品	-6179
其間	-6180
冠狀	-6181
分辨	-6182
刪除	-6183
到位	-6184
前方	-6185
劇目	-6186
動機	-6187
包圍	-6188
化爲	-6189
半個	-6190
卜杜	-6191
只剩	-6192
吾爾	-6193
唯其	-6194
嗣後	-6195
困境	-6196
團的	-6197
型別	-6198
城鄉	-6199
埔寨	-6200
大於	-6201
失望	-6202
套房	-6203
奧斯	-6204
奶奶	-6205
姊妹	-6206
子孫	-6207
子宮	-6208
學子	-6209
學歷	-6210
安慰	-6211
室的	-6212
富有	-6213
對著	-6214
展望	-6215
已是	-6216
市集	-6217
帝君	-6218
廁所	-6219
廣闊	-6220
建材	-6221
彰化	-6222
後面	-6223
心思	-6224
快來	-6225
成交	-6226
成爲	-6227
戰力	-6228
戰役	-6229
投影	-6230
投放	-6231
捷克	-6232
授予	-6233
提名	-6234
搭載	-6235
教室	-6236
教導	-6237
斯林	-6238
新興	-6239
既有	-6240
星座	-6241
春季	-6242
是太	-6243
是為	-6244
有力	-6245
村民	-6246
杭州	-6247
樓梯	-6248
標籤	-6249
模組	-6250
正義	-6251
歲時	-6252
殖民	-6253
比特	-6254
氣味	-6255
無效	-6256
牀上	-6257
現任	-6258
用作	-6259
當日	-6260
發售	-6261
的他	-6262
的紅	-6263
的開	-6264
盡快	-6265
破解	-6266
神魔	-6267
移植	-6268
稍稍	-6269
節奏	-6270
粉塵	-6271
級別	-6272
組件	-6273
給她	-6274
縱然	-6275
聲稱	-6276
職員	-6277
聽得	-6278
胸中	-6279
能有	-6280
舉例	-6281
舉措	-6282
芯片	-6283
花卉	-6284
裁員	-6285
裡邊	-6286
要素	-6287
視爲	-6288
詮釋	-6289
認爲	-6290
誠然	-6291
讓您	-6292
足足	-6293
車上	-6294
軍的	-6295
轉動	-6296
轉眼	-6297
連鎖	-6298
遊樂	-6299
運氣	-6300
道友	-6301
違法	-6302
遺失	-6303
還好	-6304
郭臺	-6305
都將	-6306
酒吧	-6307
錄取	-6308
錢包	-6309
錯了	-6310
闔家	-6311
防火	-6312
隨着	-6313
隱約	-6314
隱蔽	-6315
離心	-6316
電阻	-6317
鞏固	-6318
風吹	-6319
驚人	-6320
高潮	-6321
黑洞	-6322
黑龍	-6323
?!”	-6324
▁Al	-6325
▁as	-6326
▁it	-6327
▁le	-6328
▁提供	-6329
▁然後	-6330
▁蘇雲	-6331
▁首先	-6332
人類的	-6333
你知道	-6334
值得一	-6335
健康的	-6336
其實是	-6337
副作用	-6338
即使是	-6339
原住民	-6340
取決於	-6341
合理的	-6342
四川省	-6343
在日本	-6344
在這一	-6345
失去了	-6346
安全的	-6347
怎樣的	-6348
我知道	-6349
提出了	-6350
是我們	-6351
有更多	-6352
未成年	-6353
朱橫宇	-6354
材料的	-6355
柬埔寨	-6356
為主題	-6357
產業的	-6358
發現了	-6359
的時代	-6360
的結果	-6361
真的很	-6362
穆斯林	-6363
立法院	-6364
組成的	-6365
經濟部	-6366
維吾爾	-6367
與中國	-6368
處理器	-6369
規定的	-6370
資料庫	-6371
起來的	-6372
身上的	-6373
這一幕	-6374
那時候	-6375
阿卜杜	-6376
附近的	-6377
roid	-6378
▁The	-6379
人口普查	-6380
可以選擇	-6381
唯其如此	-6382
從此以後	-6383
新冠病毒	-6384
既然如此	-6385
更進一步	-6386
注意事項	-6387
誇大自體	-6388
▁Windows	-6389
AM	-6390
IA	-6391
RS	-6392
SD	-6393
ck	-6394
ld	-6395
ry	-6396
▁剛	-6397
▁北	-6398
▁古	-6399
▁特	-6400
一出	-6401
三次	-6402
上空	-6403
下列	-6404
下方	-6405
中最	-6406
二是	-6407
亞馬	-6408
人也	-6409
人大	-6410
人有	-6411
今昔	-6412
介面	-6413
你看	-6414
來臨	-6415
保守	-6416
偏差	-6417
傳來	-6418
傳達	-6419
光伏	-6420
全線	-6421
公分	-6422
兼職	-6423
冰消	-6424
冷不	-6425
凌晨	-6426
別墅	-6427
到期	-6428
前頭	-6429
創始	-6430
加持	-6431
升高	-6432
半數	-6433
卻也	-6434
原創	-6435
原文	-6436
去的	-6437
口腔	-6438
向上	-6439
和我	-6440
哎呀	-6441
問津	-6442
善用	-6443
回了	-6444
圖形	-6445
圖案	-6446
在你	-6447
埃及	-6448
堂主	-6449
堅固	-6450
堅定	-6451
場上	-6452
塔爾	-6453
天堂	-6454
天大	-6455
天天	-6456
天文	-6457
夫婦	-6458
妖族	-6459
始於	-6460
季度	-6461
孤單	-6462
家居	-6463
密集	-6464
專題	-6465
小區	-6466
少了	-6467
少爺	-6468
就讀	-6469
山西	-6470
巔峯	-6471
差的	-6472
希農	-6473
年華	-6474
幹嗎	-6475
幾點	-6476
度和	-6477
弱的	-6478
後再	-6479
必需	-6480
念頭	-6481
應有	-6482
戀愛	-6483
我方	-6484
打印	-6485
扭曲	-6486
把它	-6487
持久	-6488
掉的	-6489
探測	-6490
接頭	-6491
控股	-6492
插入	-6493
損傷	-6494
放下	-6495
數控	-6496
新竹	-6497
日月	-6498
星星	-6499
曾任	-6500
有不	-6501
未知	-6502
本的	-6503
村落	-6504
標志	-6505
歌手	-6506
歷程	-6507
死後	-6508
毀滅	-6509
沃爾	-6510
河流	-6511
波特	-6512
流通	-6513
海關	-6514
消逝	-6515
淘汰	-6516
淨土	-6517
源自	-6518
滋味	-6519
激動	-6520
無敵	-6521
無非	-6522
燈光	-6523
爲着	-6524
物體	-6525
特區	-6526
玫瑰	-6527
現下	-6528
環氧	-6529
用手	-6530
畫家	-6531
當場	-6532
疑似	-6533
發文	-6534
的兩	-6535
的愛	-6536
皇子	-6537
省份	-6538
省級	-6539
真君	-6540
福音	-6541
秉承	-6542
稱之	-6543
符號	-6544
終點	-6545
維基	-6546
繼而	-6547
老爺	-6548
聲的	-6549
聲色	-6550
脈沖	-6551
英鎊	-6552
萬噸	-6553
落了	-6554
藝人	-6555
蛋糕	-6556
蜘蛛	-6557
行走	-6558
製程	-6559
訴訟	-6560
試點	-6561
講講	-6562
證照	-6563
財經	-6564
買到	-6565
資深	-6566
起到	-6567
身前	-6568
身高	-6569
輕重	-6570
輻射	-6571
轉為	-6572
迎接	-6573
追溯	-6574
這塊	-6575
通往	-6576
通路	-6577
逮捕	-6578
選出	-6579
那般	-6580
量子	-6581
鍵盤	-6582
鎖定	-6583
長老	-6584
陣容	-6585
陸地	-6586
隱患	-6587
雷射	-6588
頓然	-6589
首頁	-6590
體檢	-6591
高手	-6592
齊齊	-6593
龍頭	-6594
Pad	-6595
ady	-6596
ara	-6597
ech	-6598
ect	-6599
ink	-6600
ite	-6601
ort	-6602
——”	-6603
▁這次	-6604
一次的	-6605
一起來	-6606
三個月	-6607
下半年	-6608
亞馬遜	-6609
人們的	-6610
其中的	-6611
分打點	-6612
取得了	-6613
另一種	-6614
品牌的	-6615
實現了	-6616
就是要	-6617
市場上	-6618
幹什麼	-6619
建築物	-6620
張繁枝	-6621
形成的	-6622
很可能	-6623
很高的	-6624
時間內	-6625
智能化	-6626
本公司	-6627
海底撈	-6628
瀏覽器	-6629
用戶的	-6630
男主角	-6631
畢業於	-6632
發生在	-6633
的中國	-6634
的作品	-6635
的公司	-6636
的女兒	-6637
的安裝	-6638
的日子	-6639
的時刻	-6640
的權利	-6641
的活動	-6642
的變化	-6643
老年人	-6644
被視為	-6645
農產品	-6646
這裡的	-6647
郭臺銘	-6648
醫學院	-6649
▁Air	-6650
▁pro	-6651
人工智能	-6652
其他國家	-6653
可以說是	-6654
控制系統	-6655
校長遴選	-6656
毫無疑問	-6657
猶太人的	-6658
絕大多數	-6659
ition	-6660
的一個市鎮	-6661
iPhone	-6662
股份有限公司	-6663
▁iPhone	-6664
Sp	-6665
ib	-6666
ph	-6667
▁+	-6668
▁沒	-6669
▁溫	-6670
▁石	-6671
▁讓	-6672
▁除	-6673
一一	-6674
一大	-6675
一批	-6676
一方	-6677
一站	-6678
一齊	-6679
不幸	-6680
中山	-6681
主軸	-6682
九五	-6683
九龍	-6684
了那	-6685
五位	-6686
亞太	-6687
交車	-6688
亮度	-6689
人不	-6690
他和	-6691
伴隨	-6692
但從	-6693
佔有	-6694
何論	-6695
來得	-6696
來臺	-6697
依附	-6698
促使	-6699
倘然	-6700
做事	-6701
價錢	-6702
優異	-6703
優雅	-6704
入選	-6705
八個	-6706
冰箱	-6707
冷冷	-6708
凈化	-6709
出道	-6710
刑事	-6711
初始	-6712
削減	-6713
前輩	-6714
力氣	-6715
動漫	-6716
動能	-6717
動脈	-6718
反覆	-6719
取了	-6720
合成	-6721
吸附	-6722
命的	-6723
和解	-6724
商討	-6725
問明	-6726
啟用	-6727
嘆了	-6728
器官	-6729
器材	-6730
嚴峻	-6731
均為	-6732
夏天	-6733
姬家	-6734
安打	-6735
客製	-6736
客觀	-6737
封鎖	-6738
封閉	-6739
屏東	-6740
峯會	-6741
工資	-6742
已知	-6743
得多	-6744
得好	-6745
怕是	-6746
惟有	-6747
憑借	-6748
成天	-6749
或多	-6750
房價	-6751
所知	-6752
所述	-6753
打了	-6754
披露	-6755
抱怨	-6756
拍了	-6757
拿起	-6758
指引	-6759
振興	-6760
提早	-6761
摩擦	-6762
操控	-6763
故而	-6764
整天	-6765
斬殺	-6766
新品	-6767
方今	-6768
於今	-6769
旋律	-6770
旗艦	-6771
時會	-6772
有兩	-6773
有用	-6774
期盼	-6775
未曾	-6776
未有	-6777
本事	-6778
本站	-6779
格蘭	-6780
桃花	-6781
楚風	-6782
業界	-6783
標簽	-6784
歐元	-6785
步行	-6786
歸因	-6787
歸根	-6788
法庭	-6789
泡沫	-6790
注射	-6791
洞天	-6792
派遣	-6793
流感	-6794
海鮮	-6795
消除	-6796
深感	-6797
混打	-6798
無疑	-6799
無雙	-6800
熄滅	-6801
熱量	-6802
特拉	-6803
特爾	-6804
特種	-6805
獎金	-6806
瑩瑩	-6807
生效	-6808
產權	-6809
用以	-6810
登陸	-6811
發掘	-6812
的同	-6813
的第	-6814
的金	-6815
盈利	-6816
相容	-6817
着的	-6818
神奇	-6819
神帝	-6820
禱告	-6821
稱呼	-6822
稱號	-6823
積分	-6824
管中	-6825
簡約	-6826
米亞	-6827
米的	-6828
糧食	-6829
紀委	-6830
約略	-6831
紅外	-6832
素養	-6833
終結	-6834
組裝	-6835
絲毫	-6836
維多	-6837
繪畫	-6838
習俗	-6839
考驗	-6840
而生	-6841
而過	-6842
聖地	-6843
聖靈	-6844
聯手	-6845
肢體	-6846
自知	-6847
茉莉	-6848
著力	-6849
薪資	-6850
虧損	-6851
血壓	-6852
要想	-6853
觀望	-6854
話說	-6855
語氣	-6856
課題	-6857
談話	-6858
講解	-6859
謬誤	-6860
謹慎	-6861
負荷	-6862
販售	-6863
貫穿	-6864
起牀	-6865
起碼	-6866
越多	-6867
路人	-6868
身形	-6869
車廂	-6870
輝煌	-6871
辨識	-6872
辯論	-6873
迎來	-6874
這間	-6875
進出	-6876
道明	-6877
遠遠	-6878
邊境	-6879
鍋爐	-6880
開來	-6881
限定	-6882
陳曌	-6883
隧道	-6884
難題	-6885
零翼	-6886
靈感	-6887
靠近	-6888
預制	-6889
首位	-6890
騎兵	-6891
驅逐	-6892
Net	-6893
ace	-6894
ula	-6895
▁ch	-6896
▁個月	-6897
▁就在	-6898
▁林羽	-6899
下一代	-6900
下一個	-6901
中心的	-6902
主義的	-6903
主要有	-6904
也都是	-6905
但是在	-6906
共有人	-6907
出來了	-6908
勞動部	-6909
對中國	-6910
差點兒	-6911
常用的	-6912
所以在	-6913
打電話	-6914
把自己	-6915
是一場	-6916
最適合	-6917
有一定	-6918
極大的	-6919
正常的	-6920
歷史上	-6921
比特幣	-6922
沒關係	-6923
環境下	-6924
畢業後	-6925
的一聲	-6926
的壓力	-6927
的大小	-6928
的概念	-6929
的特點	-6930
的美國	-6931
相當於	-6932
總面積	-6933
美好的	-6934
美麗的	-6935
能不能	-6936
表現出	-6937
辦事處	-6938
還是要	-6939
那樣的	-6940
關聯詞	-6941
陳丹朱	-6942
非常好	-6943
Phot	-6944
▁And	-6945
▁are	-6946
中小企業	-6947
中華電信	-6948
冠狀病毒	-6949
國家安全	-6950
實際情況	-6951
搜索引擎	-6952
覺得自己	-6953
解決問題	-6954
這些都是	-6955
Apple	-6956
習近平總書記	-6957
BI	-6958
CA	-6959
CP	-6960
EE	-6961
GP	-6962
NA	-6963
OK	-6964
OT	-6965
VD	-6966
oh	-6967
ps	-6968
so	-6969
ta	-6970
’,	-6971
▁k	-6972
▁位	-6973
▁其	-6974
▁千	-6975
▁幾	-6976
▁徐	-6977
▁百	-6978
▁祝	-6979
▁聽	-6980
▁裴	-6981
▁謝	-6982
▁近	-6983
一兩	-6984
一小	-6985
一枚	-6986
一舉	-6987
一閃	-6988
下滑	-6989
不死	-6990
不說	-6991
不通	-6992
不顧	-6993
世仁	-6994
主打	-6995
之勢	-6996
也好	-6997
亂的	-6998
人身	-6999
今次	-7000
介入	-7001
仍有	-7002
他有	-7003
他與	-7004
以其	-7005
休閑	-7006
佔了	-7007
你一	-7008
你去	-7009
來講	-7010
停留	-7011
備感	-7012
傳音	-7013
光明	-7014
兌換	-7015
內中	-7016
全省	-7017
八月	-7018
公約	-7019
冒險	-7020
凝聚	-7021
出租	-7022
制的	-7023
前提	-7024
劍光	-7025
化身	-7026
北美	-7027
去看	-7028
另行	-7029
只可	-7030
叫做	-7031
可愛	-7032
各樣	-7033
名義	-7034
向外	-7035
和尚	-7036
品味	-7037
品嚐	-7038
噴霧	-7039
固體	-7040
國有	-7041
在前	-7042
地域	-7043
域名	-7044
報考	-7045
壓抑	-7046
壓根	-7047
壓迫	-7048
外形	-7049
外表	-7050
多名	-7051
天涯	-7052
天賦	-7053
女主	-7054
女的	-7055
如來	-7056
姐妹	-7057
存的	-7058
孤獨	-7059
學科	-7060
家電	-7061
封印	-7062
將之	-7063
將那	-7064
對的	-7065
州市	-7066
差點	-7067
巴基	-7068
帶的	-7069
帶給	-7070
幾次	-7071
彌陀	-7072
很久	-7073
得來	-7074
情願	-7075
想著	-7076
憲法	-7077
成像	-7078
戰艦	-7079
所作	-7080
找尋	-7081
投標	-7082
投注	-7083
摩那	-7084
擊出	-7085
散發	-7086
敲出	-7087
整整	-7088
文人	-7089
新華	-7090
斷交	-7091
族人	-7092
日式	-7093
更低	-7094
有如	-7095
望向	-7096
朝廷	-7097
棲息	-7098
樓宇	-7099
樹立	-7100
橄欖	-7101
此事	-7102
歷經	-7103
殘疾	-7104
每當	-7105
每股	-7106
氣力	-7107
水域	-7108
泄漏	-7109
法令	-7110
深深	-7111
清單	-7112
減碳	-7113
溶液	-7114
滿臉	-7115
灰色	-7116
為其	-7117
熱水	-7118
牌的	-7119
牛奶	-7120
猜測	-7121
玄黃	-7122
王品	-7123
球閥	-7124
生理	-7125
生生	-7126
用力	-7127
田徑	-7128
界面	-7129
的音	-7130
的黑	-7131
眉眼	-7132
真有	-7133
神識	-7134
禮拜	-7135
秩序	-7136
章節	-7137
管家	-7138
米飯	-7139
精美	-7140
約為	-7141
經費	-7142
緊湊	-7143
編劇	-7144
聖堂	-7145
自戀	-7146
臺上	-7147
與之	-7148
興許	-7149
舞蹈	-7150
藉此	-7151
號的	-7152
衡量	-7153
被告	-7154
西洋	-7155
要害	-7156
要讓	-7157
見了	-7158
親近	-7159
觀測	-7160
託盤	-7161
診所	-7162
誠品	-7163
說來	-7164
調度	-7165
諒必	-7166
躋身	-7167
迴避	-7168
追究	-7169
這人	-7170
遙遠	-7171
遠程	-7172
選拔	-7173
邊界	-7174
郵輪	-7175
重機	-7176
量產	-7177
錄影	-7178
錯事	-7179
閥門	-7180
防治	-7181
防範	-7182
附件	-7183
降雨	-7184
限於	-7185
陳楓	-7186
雞蛋	-7187
難得	-7188
電車	-7189
霎時	-7190
霧峯	-7191
面貌	-7192
領悟	-7193
飛彈	-7194
養護	-7195
餐點	-7196
體力	-7197
黃色	-7198
鼻息	-7199
VID	-7200
com	-7201
ike	-7202
ile	-7203
log	-7204
▁只要	-7205
▁所有	-7206
▁採用	-7207
▁發布	-7208
▁說完	-7209
▁近日	-7210
不斷地	-7211
不清楚	-7212
了一番	-7213
人員的	-7214
兩個人	-7215
分佈於	-7216
到現在	-7217
副教授	-7218
即使在	-7219
可分為	-7220
可說是	-7221
在這種	-7222
在這裏	-7223
壓縮機	-7224
多少錢	-7225
太平洋	-7226
實質上	-7227
小時內	-7228
就沒有	-7229
年成立	-7230
形成了	-7231
心中的	-7232
想了想	-7233
或者是	-7234
摩那耶	-7235
是一下	-7236
是臺灣	-7237
會導致	-7238
有任何	-7239
標準的	-7240
減少了	-7241
為基礎	-7242
甚至是	-7243
產業鏈	-7244
的人都	-7245
的兒子	-7246
的出現	-7247
的合作	-7248
的國際	-7249
的女人	-7250
的投資	-7251
的文化	-7252
的角度	-7253
的部分	-7254
的風險	-7255
的食物	-7256
的高度	-7257
目的地	-7258
等問題	-7259
結束後	-7260
舉行的	-7261
諾貝爾	-7262
讓大家	-7263
較高的	-7264
這會兒	-7265
還沒有	-7266
都不會	-7267
都需要	-7268
重要性	-7269
錦標賽	-7270
隸屬於	-7271
▁Arm	-7272
世界大戰	-7273
什麼樣的	-7274
文物保護	-7275
有一定的	-7276
的基礎上	-7277
研究中心	-7278
第一時間	-7279
維多利亞	-7280
美國總統	-7281
行政區劃	-7282
該當何論	-7283
這個世界	-7284
redit	-7285
Neoverse	-7286
▁politic	-7287
▁“......	-7288
.”	-7289
BB	-7290
Go	-7291
HK	-7292
MA	-7293
MV	-7294
Mo	-7295
▁何	-7296
▁出	-7297
▁安	-7298
▁平	-7299
▁把	-7300
▁起	-7301
▁跟	-7302
▁車	-7303
▁雙	-7304
▁電	-7305
一併	-7306
一抹	-7307
一揮	-7308
一流	-7309
三世	-7310
上千	-7311
上百	-7312
下旬	-7313
下次	-7314
不佳	-7315
不利	-7316
不止	-7317
不畏	-7318
世足	-7319
丟失	-7320
中斷	-7321
享用	-7322
人間	-7323
他將	-7324
伴侶	-7325
似的	-7326
低頭	-7327
修齊	-7328
偷偷	-7329
傷口	-7330
光纖	-7331
入的	-7332
公然	-7333
六年	-7334
典禮	-7335
出境	-7336
出賽	-7337
分手	-7338
分曉	-7339
分裂	-7340
到場	-7341
力不	-7342
加油	-7343
加碼	-7344
勇氣	-7345
動員	-7346
包容	-7347
化石	-7348
北方	-7349
匹克	-7350
區分	-7351
南京	-7352
南方	-7353
參演	-7354
又不	-7355
反饋	-7356
口角	-7357
另有	-7358
可觀	-7359
合夥	-7360
同仁	-7361
同日	-7362
吳秀	-7363
四人	-7364
在新	-7365
地中	-7366
城中	-7367
執政	-7368
墨巢	-7369
壺鈴	-7370
多說	-7371
大佬	-7372
大哥	-7373
大方	-7374
大白	-7375
大笑	-7376
大門	-7377
奈何	-7378
姆斯	-7379
定向	-7380
宮廷	-7381
寂寞	-7382
富邦	-7383
寒冷	-7384
審批	-7385
射出	-7386
將被	-7387
導向	-7388
小乙	-7389
小喫	-7390
小小	-7391
小白	-7392
展廳	-7393
已於	-7394
市政	-7395
常態	-7396
底層	-7397
庭院	-7398
弱勢	-7399
往上	-7400
復原	-7401
德拉	-7402
忍受	-7403
怪物	-7404
恐慌	-7405
惟獨	-7406
想象	-7407
感慨	-7408
憲兵	-7409
應聲	-7410
應變	-7411
我來	-7412
我很	-7413
戰後	-7414
手臂	-7415
打包	-7416
找回	-7417
招募	-7418
拿著	-7419
指責	-7420
掙扎	-7421
接地	-7422
提議	-7423
擅自	-7424
擔保	-7425
攝像	-7426
收穫	-7427
教士	-7428
教的	-7429
教訓	-7430
數的	-7431
新手	-7432
新高	-7433
是好	-7434
是將	-7435
是真	-7436
時有	-7437
晉級	-7438
晚餐	-7439
暗示	-7440
暴露	-7441
曲線	-7442
書法	-7443
最強	-7444
有望	-7445
本屆	-7446
本質	-7447
東歐	-7448
格外	-7449
栽培	-7450
桌上	-7451
標示	-7452
樣貌	-7453
檢修	-7454
次的	-7455
此類	-7456
步道	-7457
歸來	-7458
毋庸	-7459
每位	-7460
比擬	-7461
氣勢	-7462
氣管	-7463
水管	-7464
沒能	-7465
況且	-7466
泰山	-7467
洋洋	-7468
浴室	-7469
消退	-7470
減弱	-7471
溫和	-7472
滑雪	-7473
濃鬱	-7474
火車	-7475
火雞	-7476
無盡	-7477
爾德	-7478
片的	-7479
猛然	-7480
猶如	-7481
玩的	-7482
理工	-7483
理性	-7484
環繞	-7485
生育	-7486
瘋狂	-7487
登上	-7488
發酵	-7489
的單	-7490
的她	-7491
的死	-7492
的笑	-7493
皇上	-7494
盡力	-7495
目錄	-7496
看守	-7497
眼底	-7498
眼裡	-7499
研磨	-7500
研院	-7501
神社	-7502
穿上	-7503
童年	-7504
等著	-7505
節約	-7506
簽約	-7507
精品	-7508
細緻	-7509
維亞	-7510
緊緊	-7511
編碼	-7512
編號	-7513
績效	-7514
纔會	-7515
纔行	-7516
聖母	-7517
聲響	-7518
能與	-7519
脾氣	-7520
腹部	-7521
自稱	-7522
致的	-7523
臺的	-7524
與我	-7525
舒緩	-7526
苗栗	-7527
若果	-7528
萬一	-7529
著的	-7530
蒸發	-7531
處境	-7532
衍生	-7533
被他	-7534
裁判	-7535
裝潢	-7536
要不	-7537
訛誤	-7538
設法	-7539
註明	-7540
該地	-7541
語音	-7542
說着	-7543
變了	-7544
貓咪	-7545
資助	-7546
起源	-7547
輕松	-7548
輝達	-7549
輿論	-7550
轉讓	-7551
迴天	-7552
這事	-7553
這部	-7554
通車	-7555
速率	-7556
連串	-7557
遇上	-7558
運送	-7559
遍佈	-7560
那人	-7561
那我	-7562
郡主	-7563
重返	-7564
鑰匙	-7565
開通	-7566
間隙	-7567
閣下	-7568
降價	-7569
院校	-7570
隱匿	-7571
靈敏	-7572
青山	-7573
預留	-7574
領會	-7575
飛劍	-7576
飼料	-7577
香料	-7578
馬斯	-7579
高低	-7580
高階	-7581
ens	-7582
ext	-7583
ood	-7584
▁!”	-7585
▁。”	-7586
▁之後	-7587
▁儘管	-7588
▁就是	-7589
▁攝影	-7590
▁楊開	-7591
▁沒有	-7592
▁第四	-7593
▁葉玄	-7594
▁那麼	-7595
並提供	-7596
也需要	-7597
了一句	-7598
人生的	-7599
其他的	-7600
卻沒有	-7601
及其他	-7602
可根據	-7603
可靠性	-7604
合適的	-7605
同一個	-7606
吳秀波	-7607
和社會	-7608
因此在	-7609
在內的	-7610
在全國	-7611
在我的	-7612
在這邊	-7613
完成了	-7614
完成後	-7615
對自己	-7616
就像是	-7617
就開始	-7618
工作中	-7619
帶來了	-7620
幾個月	-7621
影響力	-7622
得不到	-7623
愛爾蘭	-7624
我認為	-7625
才知道	-7626
找到了	-7627
教育的	-7628
日上午	-7629
是一件	-7630
是可以	-7631
是美國	-7632
服務器	-7633
林匹克	-7634
歸因於	-7635
注意到	-7636
現階段	-7637
發布的	-7638
的學生	-7639
的專業	-7640
的生產	-7641
的行動	-7642
的身影	-7643
的選擇	-7644
相對於	-7645
相應的	-7646
第三方	-7647
要不然	-7648
詳細的	-7649
遊戲中	-7650
都是在	-7651
鋁合金	-7652
克里米亞	-7653
可以幫助	-7654
可以根據	-7655
同時也是	-7656
多多少少	-7657
巴基斯坦	-7658
技術人員	-7659
日常生活	-7660
理所當然	-7661
環境保護	-7662
科技創新	-7663
管理體系	-7664
經濟發展	-7665
重要的是	-7666
闔家歡樂	-7667
Photo	-7668
▁this	-7669
witter	-7670
文物保護單位	-7671
▁Credit	-7672
%~	-7673
BM	-7674
Cr	-7675
ES	-7676
MS	-7677
Sh	-7678
TC	-7679
TS	-7680
io	-7681
pl	-7682
ue	-7683
▁各	-7684
▁唐	-7685
▁夏	-7686
▁孫	-7687
▁宋	-7688
▁所	-7689
▁生	-7690
▁真	-7691
▁答	-7692
▁米	-7693
▁誰	-7694
一共	-7695
一副	-7696
一愣	-7697
一本	-7698
一杯	-7699
一根	-7700
一貫	-7701
一頭	-7702
三星	-7703
三月	-7704
上半	-7705
不曾	-7706
並與	-7707
中位	-7708
中外	-7709
之以	-7710
二話	-7711
五星	-7712
京東	-7713
人之	-7714
人文	-7715
人造	-7716
付費	-7717
佛法	-7718
作風	-7719
佳的	-7720
係統	-7721
促銷	-7722
保衛	-7723
信徒	-7724
倫理	-7725
做得	-7726
傍晚	-7727
僅是	-7728
僅為	-7729
光滑	-7730
內在	-7731
兩側	-7732
兩名	-7733
八九	-7734
八年	-7735
八方	-7736
出任	-7737
別於	-7738
利害	-7739
制動	-7740
劇本	-7741
劇烈	-7742
包裹	-7743
協作	-7744
協和	-7745
南海	-7746
即刻	-7747
原生	-7748
參照	-7749
又稱	-7750
受了	-7751
受害	-7752
口岸	-7753
古老	-7754
只得	-7755
咳嗽	-7756
唯恐	-7757
商戶	-7758
喫完	-7759
嘴角	-7760
在手	-7761
在該	-7762
基隆	-7763
塑膠	-7764
多半	-7765
夜間	-7766
大區	-7767
大夥	-7768
大變	-7769
大軍	-7770
大過	-7771
奇妙	-7772
奉獻	-7773
套件	-7774
奮進	-7775
女友	-7776
奶油	-7777
她就	-7778
她說	-7779
如山	-7780
孤立	-7781
學系	-7782
它在	-7783
安寧	-7784
客氣	-7785
射擊	-7786
將是	-7787
將要	-7788
少量	-7789
尚無	-7790
就可	-7791
屁股	-7792
屋苑	-7793
左手	-7794
己方	-7795
巴巴	-7796
師尊	-7797
帶到	-7798
帶回	-7799
年增	-7800
年月	-7801
年青	-7802
度過	-7803
彎曲	-7804
往下	-7805
待遇	-7806
很強	-7807
後悔	-7808
後方	-7809
得出	-7810
必備	-7811
急忙	-7812
恆溫	-7813
想去	-7814
意願	-7815
慾望	-7816
成千	-7817
或少	-7818
房東	-7819
手掌	-7820
承接	-7821
抵抗	-7822
指控	-7823
排列	-7824
探究	-7825
推特	-7826
擅長	-7827
攀升	-7828
支部	-7829
改良	-7830
故鄉	-7831
救援	-7832
敘述	-7833
整套	-7834
數目	-7835
日內	-7836
日行	-7837
是與	-7838
時任	-7839
時機	-7840
暗中	-7841
曉得	-7842
更具	-7843
更強	-7844
書的	-7845
會使	-7846
會讓	-7847
月臺	-7848
有三	-7849
有道	-7850
有錢	-7851
有餘	-7852
期貨	-7853
未必	-7854
本週	-7855
枸杞	-7856
格的	-7857
棋牌	-7858
構想	-7859
標的	-7860
橋梁	-7861
機率	-7862
機票	-7863
歸屬	-7864
死不	-7865
殘酷	-7866
氣機	-7867
江西	-7868
法身	-7869
洗衣	-7870
派人	-7871
派對	-7872
海上	-7873
海內	-7874
減小	-7875
港澳	-7876
滿了	-7877
滿貫	-7878
瀑布	-7879
煤炭	-7880
照舊	-7881
熱帶	-7882
熱血	-7883
爵士	-7884
牧師	-7885
猜想	-7886
率領	-7887
珍珠	-7888
環姐	-7889
甚或	-7890
生氣	-7891
略帶	-7892
畫質	-7893
當兒	-7894
發放	-7895
百度	-7896
的最	-7897
的魔	-7898
皆有	-7899
目中	-7900
矚目	-7901
短暫	-7902
石墨	-7903
石灰	-7904
破產	-7905
社團	-7906
神來	-7907
神器	-7908
禮服	-7909
稍加	-7910
穿梭	-7911
立方	-7912
章嘉	-7913
競技	-7914
等同	-7915
糟糕	-7916
紀律	-7917
紡織	-7918
終歸	-7919
絕頂	-7920
總算	-7921
繁殖	-7922
美方	-7923
老漢	-7924
而上	-7925
而他	-7926
耳機	-7927
聽過	-7928
肉眼	-7929
肉身	-7930
能為	-7931
能讓	-7932
脫落	-7933
臉蛋	-7934
與人	-7935
舒服	-7936
航天	-7937
花的	-7938
草原	-7939
莫凡	-7940
葉凡	-7941
融洽	-7942
被抓	-7943
要看	-7944
視的	-7945
親密	-7946
覺着	-7947
設使	-7948
貢丸	-7949
走着	-7950
越高	-7951
跟進	-7952
身穿	-7953
身處	-7954
輝瑞	-7955
送貨	-7956
透頂	-7957
途中	-7958
這幾	-7959
通風	-7960
連忙	-7961
進駐	-7962
配有	-7963
重重	-7964
銀河	-7965
閃爍	-7966
開工	-7967
開機	-7968
開端	-7969
關節	-7970
防空	-7971
隻是	-7972
雖則	-7973
霍奇	-7974
霧化	-7975
靠著	-7976
預定	-7977
頗具	-7978
頭腦	-7979
頻繁	-7980
額度	-7981
類別	-7982
風流	-7983
風雲	-7984
颱風	-7985
食堂	-7986
餃子	-7987
鮮明	-7988
點子	-7989
ARS	-7990
ini	-7991
oin	-7992
per	-7993
▁Th	-7994
▁ab	-7995
▁at	-7996
▁年代	-7997
▁有關	-7998
▁此次	-7999
▁看到	-8000
、、、	-8001
一會兒	-8002
一輩子	-8003
不得已	-8004
不會有	-8005
不超過	-8006
也成為	-8007
也會有	-8008
了一種	-8009
了上來	-8010
了很多	-8011
了許多	-8012
以下的	-8013
以來的	-8014
任何人	-8015
但由於	-8016
來進行	-8017
兩個月	-8018
具體的	-8019
到底是	-8020
只不過	-8021
嚴格的	-8022
多元化	-8023
大學的	-8024
如果您	-8025
婁小乙	-8026
小時候	-8027
就在這	-8028
就是在	-8029
已經被	-8030
年人口	-8031
建立了	-8032
引起的	-8033
所有人	-8034
打擊率	-8035
推出了	-8036
數位化	-8037
新一代	-8038
是比較	-8039
時間的	-8040
更何況	-8041
有兩個	-8042
有效地	-8043
有的人	-8044
條件下	-8045
江蘇省	-8046
特別的	-8047
獨立的	-8048
環境的	-8049
發現的	-8050
發言人	-8051
的一年	-8052
的一次	-8053
的人物	-8054
的優勢	-8055
的其他	-8056
的前提	-8057
的動力	-8058
的基本	-8059
的氣息	-8060
盡可能	-8061
看了眼	-8062
看到了	-8063
管中閔	-8064
網站的	-8065
自治區	-8066
臺灣人	-8067
進行的	-8068
道明寺	-8069
達到了	-8070
那就是	-8071
都是一	-8072
項目的	-8073
____	-8074
▁Mac	-8075
▁not	-8076
▁秦林葉	-8077
主管部門	-8078
加密貨幣	-8079
可以直接	-8080
奧林匹克	-8081
延伸閱讀	-8082
指揮中心	-8083
最後一個	-8084
職業生涯	-8085
▁Linux	-8086
YouTube	-8087
GR	-8088
VR	-8089
eg	-8090
yn	-8091
▁•	-8092
▁劑	-8093
▁太	-8094
▁度	-8095
▁心	-8096
▁星	-8097
▁超	-8098
▁路	-8099
▁道	-8100
一二	-8101
一刻	-8102
一雙	-8103
上任	-8104
上路	-8105
不堪	-8106
不忘	-8107
不意	-8108
不懈	-8109
不返	-8110
不適	-8111
丫頭	-8112
中之	-8113
中介	-8114
之年	-8115
之音	-8116
九月	-8117
事了	-8118
五金	-8119
人如	-8120
他所	-8121
付諸	-8122
伯爵	-8123
伸縮	-8124
低音	-8125
作法	-8126
作爲	-8127
你對	-8128
保濕	-8129
修飾	-8130
倉儲	-8131
倍感	-8132
假使	-8133
假若	-8134
偉大	-8135
做成	-8136
偵查	-8137
先行	-8138
兒戲	-8139
入海	-8140
內需	-8141
全日	-8142
全長	-8143
共計	-8144
再去	-8145
冷哼	-8146
凸顯	-8147
出入	-8148
分娩	-8149
初心	-8150
到大	-8151
則以	-8152
則會	-8153
則有	-8154
匹配	-8155
千葉	-8156
南投	-8157
南瓜	-8158
卻有	-8159
卻沒	-8160
取出	-8161
口碑	-8162
合的	-8163
吉爾	-8164
同盟	-8165
同等	-8166
吸煙	-8167
呱呱	-8168
哆啦	-8169
善於	-8170
喜悅	-8171
四位	-8172
四月	-8173
四種	-8174
四面	-8175
因果	-8176
圈的	-8177
土工	-8178
在全	-8179
在臺	-8180
型態	-8181
基準	-8182
報酬	-8183
場域	-8184
士兵	-8185
士的	-8186
大增	-8187
大夫	-8188
大成	-8189
大火	-8190
大聲	-8191
大隊	-8192
天津	-8193
天皇	-8194
奇異	-8195
始發	-8196
子彈	-8197
存儲	-8198
宗的	-8199
家鄉	-8200
審議	-8201
將有	-8202
對她	-8203
對立	-8204
小於	-8205
小熊	-8206
少少	-8207
尤爲	-8208
就把	-8209
就更	-8210
就說	-8211
尾聲	-8212
山區	-8213
山派	-8214
島上	-8215
師哥	-8216
常務	-8217
常委	-8218
平凡	-8219
幾何	-8220
座標	-8221
弗蘭	-8222
彌補	-8223
往前	-8224
待在	-8225
很不	-8226
復工	-8227
德州	-8228
忽略	-8229
思路	-8230
性強	-8231
性與	-8232
悄悄	-8233
患上	-8234
情人	-8235
惡意	-8236
愛立	-8237
態勢	-8238
懲罰	-8239
懷舊	-8240
我對	-8241
或在	-8242
批發	-8243
承辦	-8244
援例	-8245
援助	-8246
搭乘	-8247
擊殺	-8248
支配	-8249
收拾	-8250
斯的	-8251
旅程	-8252
日報	-8253
星域	-8254
昨日	-8255
是無	-8256
是用	-8257
是非	-8258
時時	-8259
暖氣	-8260
最少	-8261
會中	-8262
會計	-8263
朗普	-8264
望遠	-8265
本校	-8266
根廷	-8267
根源	-8268
極具	-8269
極大	-8270
樂器	-8271
機上	-8272
橫跨	-8273
此爲	-8274
殿主	-8275
氣溫	-8276
氣球	-8277
水和	-8278
水箱	-8279
汽油	-8280
沉默	-8281
河的	-8282
油價	-8283
油漆	-8284
沿海	-8285
法相	-8286
泯滅	-8287
流域	-8288
浮動	-8289
涉嫌	-8290
淡水	-8291
深淵	-8292
清淨	-8293
溶解	-8294
漢堡	-8295
潮流	-8296
為每	-8297
無形	-8298
無關	-8299
爲何	-8300
獨木	-8301
球的	-8302
理的	-8303
理財	-8304
瓦爾	-8305
生動	-8306
男士	-8307
男生	-8308
略爲	-8309
白天	-8310
白的	-8311
百般	-8312
的古	-8313
的名	-8314
的工	-8315
的異	-8316
的花	-8317
的親	-8318
益善	-8319
真心	-8320
瞭然	-8321
短缺	-8322
硬件	-8323
硬碟	-8324
磋商	-8325
神工	-8326
神氣	-8327
租界	-8328
稍許	-8329
窗戶	-8330
筆記	-8331
簡稱	-8332
簽下	-8333
粉末	-8334
粗糙	-8335
糖尿	-8336
約束	-8337
純粹	-8338
終身	-8339
絕望	-8340
缺少	-8341
罕見	-8342
罷了	-8343
耐火	-8344
聖座	-8345
肚子	-8346
股市	-8347
股權	-8348
舛誤	-8349
艱苦	-8350
色調	-8351
若能	-8352
萬事	-8353
萬裏	-8354
蘇曉	-8355
血統	-8356
衚衕	-8357
要從	-8358
要比	-8359
見狀	-8360
視聽	-8361
觀展	-8362
訂定	-8363
訂購	-8364
討厭	-8365
該年	-8366
誠實	-8367
講師	-8368
變動	-8369
變壓	-8370
變換	-8371
貨品	-8372
質地	-8373
賭博	-8374
足跡	-8375
跡象	-8376
車道	-8377
軍人	-8378
較少	-8379
轉瞬	-8380
轉速	-8381
迴歸	-8382
通話	-8383
進化	-8384
進軍	-8385
進階	-8386
達標	-8387
達爾	-8388
野生	-8389
錢的	-8390
開天	-8391
開業	-8392
防守	-8393
阻力	-8394
限量	-8395
院中	-8396
陸軍	-8397
陽性	-8398
隊員	-8399
隨地	-8400
隱形	-8401
隻要	-8402
雷霆	-8403
非法	-8404
頭裡	-8405
首批	-8406
首相	-8407
驗收	-8408
高文	-8409
魔法	-8410
魔獸	-8411
鳥類	-8412
Mac	-8413
ave	-8414
ool	-8415
pen	-8416
rom	-8417
son	-8418
vel	-8419
▁Ad	-8420
▁an	-8421
▁原來	-8422
▁服務	-8423
▁臺北	-8424
一個小	-8425
一次性	-8426
不一定	-8427
不代表	-8428
中國人	-8429
也可能	-8430
介紹了	-8431
他認為	-8432
企業家	-8433
全方位	-8434
創造了	-8435
勞動力	-8436
十分鐘	-8437
原因是	-8438
可能的	-8439
可透過	-8440
告訴你	-8441
大使館	-8442
始建於	-8443
孩子們	-8444
完美的	-8445
就不會	-8446
就這樣	-8447
希望能	-8448
帝國的	-8449
從來不	-8450
心理學	-8451
怎麼着	-8452
想知道	-8453
我們對	-8454
所在地	-8455
所需的	-8456
支持者	-8457
政策的	-8458
此爲甚	-8459
母親的	-8460
海內外	-8461
為臺灣	-8462
現有的	-8463
的事件	-8464
的味道	-8465
的樣子	-8466
的溫度	-8467
的發生	-8468
的社會	-8469
的美好	-8470
的說法	-8471
的身份	-8472
的重點	-8473
科學院	-8474
等功能	-8475
統治者	-8476
經理人	-8477
經驗的	-8478
能夠在	-8479
蔡英文	-8480
行政院	-8481
複雜的	-8482
變成了	-8483
變頻器	-8484
這麼多	-8485
通過了	-8486
過去的	-8487
過濾器	-8488
錯誤的	-8489
電動機	-8490
馬克思	-8491
ahoo	-8492
icro	-8493
ound	-8494
主辦單位	-8495
已經開始	-8496
式石庫門	-8497
成為全球	-8498
或多或少	-8499
所產生的	-8500
數據顯示	-8501
文化遺產	-8502
經濟增長	-8503
莫此爲甚	-8504
這個時候	-8505
這是一個	-8506
過眼煙雲	-8507
霍奇克斯	-8508
▁與此同時	-8509
下轄的一個	-8510
Facebook	-8511
AV	-8512
MC	-8513
OP	-8514
PN	-8515
TA	-8516
▁亞	-8517
▁曾	-8518
▁比	-8519
▁沈	-8520
▁級	-8521
▁能	-8522
▁臺	-8523
▁血	-8524
▁許	-8525
、“	-8526
一事	-8527
一劍	-8528
一擊	-8529
一線	-8530
一覽	-8531
一趟	-8532
丁目	-8533
七年	-8534
上層	-8535
上級	-8536
上訴	-8537
下屬	-8538
下注	-8539
不信	-8540
不肯	-8541
並為	-8542
中邦	-8543
中醫	-8544
丹娜	-8545
之物	-8546
乘坐	-8547
也想	-8548
也比	-8549
互助	-8550
亞於	-8551
京城	-8552
人了	-8553
人多	-8554
人選	-8555
今晚	-8556
他能	-8557
代碼	-8558
以致	-8559
休閒	-8560
位面	-8561
低調	-8562
住院	-8563
何處	-8564
佛陀	-8565
作曲	-8566
使人	-8567
例外	-8568
供水	-8569
候羣	-8570
倡議	-8571
倫比	-8572
價的	-8573
儲蓄	-8574
元年	-8575
先發	-8576
克森	-8577
克的	-8578
內涵	-8579
兩端	-8580
公會	-8581
六十	-8582
再用	-8583
冷凍	-8584
出不	-8585
分泌	-8586
前沿	-8587
前者	-8588
前行	-8589
劉桐	-8590
功德	-8591
加固	-8592
勇敢	-8593
午餐	-8594
即令	-8595
原有	-8596
又要	-8597
友愛	-8598
反抗	-8599
反正	-8600
反響	-8601
口服	-8602
口袋	-8603
可供	-8604
可憐	-8605
可讓	-8606
各方	-8607
名人	-8608
名列	-8609
含義	-8610
和你	-8611
和新	-8612
哺乳	-8613
商量	-8614
問我	-8615
啥子	-8616
喇叭	-8617
喜好	-8618
嘉賓	-8619
嘴裡	-8620
嚴禁	-8621
嚴謹	-8622
因故	-8623
國力	-8624
國小	-8625
園地	-8626
在北	-8627
在小	-8628
在校	-8629
均有	-8630
均衡	-8631
坪數	-8632
堅強	-8633
報表	-8634
填充	-8635
填寫	-8636
增多	-8637
外圍	-8638
夥同	-8639
大街	-8640
天擇	-8641
天魔	-8642
奈米	-8643
契約	-8644
安定	-8645
完結	-8646
定時	-8647
寫道	-8648
將由	-8649
專心	-8650
專職	-8651
對照	-8652
尿酸	-8653
局勢	-8654
屍體	-8655
山頂	-8656
崩潰	-8657
巨頭	-8658
幅度	-8659
年和	-8660
年邁	-8661
康復	-8662
引人	-8663
很想	-8664
後代	-8665
從沒	-8666
心力	-8667
怎的	-8668
急性	-8669
性命	-8670
情節	-8671
愈加	-8672
憂慮	-8673
或不	-8674
戰的	-8675
手遊	-8676
打出	-8677
把他	-8678
抱著	-8679
招生	-8680
指南	-8681
挫折	-8682
掀起	-8683
接壤	-8684
換成	-8685
搖擺	-8686
搞定	-8687
搬運	-8688
撤銷	-8689
操縱	-8690
據此	-8691
擺設	-8692
收斂	-8693
收獲	-8694
收看	-8695
放到	-8696
教主	-8697
散播	-8698
新一	-8699
明朝	-8700
星雲	-8701
是啊	-8702
景區	-8703
暑假	-8704
最具	-8705
月底	-8706
有心	-8707
有言	-8708
本科	-8709
村的	-8710
板上	-8711
核酸	-8712
極爲	-8713
榜單	-8714
構件	-8715
檔次	-8716
檢疫	-8717
檢討	-8718
櫻木	-8719
欠缺	-8720
欺負	-8721
此人	-8722
殘留	-8723
每週	-8724
比分	-8725
氣動	-8726
水井	-8727
水源	-8728
永恆	-8729
汙染	-8730
決不	-8731
沉澱	-8732
沒錯	-8733
油脂	-8734
法則	-8735
洋基	-8736
洗手	-8737
涅槃	-8738
減肥	-8739
測驗	-8740
渾身	-8741
溜溜	-8742
火焰	-8743
火鍋	-8744
為準	-8745
無常	-8746
照護	-8747
牆上	-8748
牡丹	-8749
獅子	-8750
玩傢	-8751
現身	-8752
理石	-8753
瓶頸	-8754
生於	-8755
略略	-8756
痕跡	-8757
癥狀	-8758
發光	-8759
的超	-8760
的馬	-8761
皆知	-8762
皇后	-8763
直徑	-8764
相近	-8765
看完	-8766
看齊	-8767
睜開	-8768
知曉	-8769
石化	-8770
硅膠	-8771
社長	-8772
祖師	-8773
禮貌	-8774
積電	-8775
突發	-8776
立馬	-8777
等候	-8778
等多	-8779
簡報	-8780
籌碼	-8781
精選	-8782
約定	-8783
約有	-8784
納粹	-8785
細則	-8786
統籌	-8787
網民	-8788
續航	-8789
纏繞	-8790
耐磨	-8791
聖經	-8792
能不	-8793
脫手	-8794
自助	-8795
自從	-8796
致使	-8797
舉動	-8798
艱難	-8799
華麗	-8800
落於	-8801
藉助	-8802
蘊含	-8803
號召	-8804
衣櫃	-8805
衣物	-8806
裝配	-8807
西藏	-8808
見不	-8809
視力	-8810
親善	-8811
解脫	-8812
計量	-8813
設若	-8814
評分	-8815
評判	-8816
詩人	-8817
調研	-8818
調解	-8819
談道	-8820
貨色	-8821
貴人	-8822
賣出	-8823
起點	-8824
跟你	-8825
路的	-8826
身子	-8827
車禍	-8828
較多	-8829
輕微	-8830
迄今	-8831
透氣	-8832
逐年	-8833
這顆	-8834
這首	-8835
連連	-8836
進取	-8837
遊玩	-8838
道具	-8839
道君	-8840
適度	-8841
遷移	-8842
遺憾	-8843
還算	-8844
那你	-8845
鄭州	-8846
酒精	-8847
醫護	-8848
鋼管	-8849
鑑於	-8850
長劍	-8851
門店	-8852
開花	-8853
間距	-8854
阻擋	-8855
限時	-8856
隊長	-8857
階級	-8858
隔熱	-8859
雲峯	-8860
靜脈	-8861
順暢	-8862
順水	-8863
預告	-8864
預訂	-8865
頗爲	-8866
領事	-8867
願景	-8868
顛覆	-8869
香味	-8870
騰的	-8871
點數	-8872
GPT	-8873
Pod	-8874
The	-8875
ank	-8876
ary	-8877
ial	-8878
iss	-8879
lou	-8880
oom	-8881
▁作者	-8882
▁公尺	-8883
▁有些	-8884
▁記者	-8885
▁達志	-8886
一件事	-8887
不同於	-8888
不自禁	-8889
不願意	-8890
世足賽	-8891
了一度	-8892
二十四	-8893
人如織	-8894
他們是	-8895
以外的	-8896
伴隨著	-8897
但我們	-8898
作品的	-8899
依然故	-8900
充滿了	-8901
克里斯	-8902
兩人的	-8903
出色的	-8904
分公司	-8905
北極星	-8906
原來的	-8907
可以從	-8908
可靠的	-8909
各部門	-8910
合作的	-8911
因為他	-8912
國家級	-8913
在哪裡	-8914
在國際	-8915
在未來	-8916
多樣性	-8917
如果有	-8918
學習的	-8919
小行星	-8920
就無法	-8921
左小念	-8922
廣泛的	-8923
怎麼做	-8924
意大利	-8925
意識的	-8926
所以我	-8927
新產品	-8928
旁邊的	-8929
日下午	-8930
更好地	-8931
最小的	-8932
會影響	-8933
有一天	-8934
有興趣	-8935
服務業	-8936
東南部	-8937
氣象局	-8938
清楚的	-8939
湖四海	-8940
溫世仁	-8941
為了讓	-8942
特定的	-8943
玩家們	-8944
瑪丹娜	-8945
產生了	-8946
症候羣	-8947
的事業	-8948
的人們	-8949
的本質	-8950
的機率	-8951
的神情	-8952
的第二	-8953
的距離	-8954
看不到	-8955
眾議院	-8956
研討會	-8957
秦林葉	-8958
聯合報	-8959
自然是	-8960
英特爾	-8961
莫德納	-8962
裡面的	-8963
製作的	-8964
要如何	-8965
解決了	-8966
較大的	-8967
這個人	-8968
通常是	-8969
適當的	-8970
重定向	-8971
金融業	-8972
頃刻間	-8973
骨子裡	-8974
高科技	-8975
flix	-8976
▁Net	-8977
▁PRD	-8978
▁什麼是	-8979
▁日宣佈	-8980
中國特色	-8981
二話沒說	-8982
作為一個	-8983
值得一提	-8984
全體員工	-8985
其中包括	-8986
如果沒有	-8987
市場需求	-8988
新冠肺炎	-8989
有不同的	-8990
每個人都	-8991
特斯拉的	-8992
生態環境	-8993
生活方式	-8994
知識產權	-8995
積極參與	-8996
美國政府	-8997
這篇文章	-8998
遊人如織	-8999
阿卜杜爾	-9000
adyGo	-9001
▁達志影像	-9002
各種各樣的	-9003
越來越多的	-9004
中國特色社會主義	-9005
BN	-9006
EL	-9007
Wi	-9008
XX	-9009
ax	-9010
ba	-9011
pa	-9012
▁之	-9013
▁初	-9014
▁微	-9015
▁打	-9016
▁杜	-9017
▁深	-9018
▁轉	-9019
▁項	-9020
▁風	-9021
一族	-9022
一言	-9023
一頓	-9024
三昧	-9025
不休	-9026
不小	-9027
不被	-9028
並由	-9029
中午	-9030
中子	-9031
中期	-9032
之境	-9033
乒乓	-9034
九品	-9035
事人	-9036
互通	-9037
五人	-9038
交由	-9039
亥豕	-9040
亮相	-9041
人影	-9042
人格	-9043
他才	-9044
他要	-9045
以次	-9046
份量	-9047
份額	-9048
伊布	-9049
伊朗	-9050
伍德	-9051
何事	-9052
你可	-9053
你還	-9054
來做	-9055
依託	-9056
侵犯	-9057
保單	-9058
保管	-9059
修女	-9060
個子	-9061
倏地	-9062
倘若	-9063
值的	-9064
假諾	-9065
假面	-9066
像素	-9067
價比	-9068
充實	-9069
先是	-9070
先知	-9071
光陰	-9072
免稅	-9073
全套	-9074
兩手	-9075
兩邊	-9076
八十	-9077
八百	-9078
六合	-9079
再多	-9080
冷凝	-9081
冷水	-9082
出自	-9083
出行	-9084
出遊	-9085
別說	-9086
制約	-9087
刻意	-9088
前期	-9089
前線	-9090
劉善	-9091
功法	-9092
功用	-9093
功課	-9094
加哥	-9095
加深	-9096
加重	-9097
匯率	-9098
十方	-9099
南非	-9100
博弈	-9101
卡拉	-9102
卻被	-9103
去買	-9104
反射	-9105
叢中	-9106
古怪	-9107
可樂	-9108
司令	-9109
同性	-9110
同行	-9111
吞噬	-9112
和小	-9113
哈佛	-9114
商用	-9115
商議	-9116
喪失	-9117
噪聲	-9118
噴嘴	-9119
四處	-9120
國泰	-9121
國資	-9122
國軍	-9123
在乎	-9124
在場	-9125
在與	-9126
坎吉	-9127
坐下	-9128
執意	-9129
報復	-9130
壘打	-9131
士頓	-9132
壽司	-9133
外在	-9134
夜晚	-9135
大臣	-9136
天體	-9137
失控	-9138
女神	-9139
好喫	-9140
妄想	-9141
妥協	-9142
孔廟	-9143
孕育	-9144
安穩	-9145
安防	-9146
宏觀	-9147
宣揚	-9148
室外	-9149
審判	-9150
寶貝	-9151
將以	-9152
將為	-9153
對接	-9154
小米	-9155
就如	-9156
就得	-9157
就醫	-9158
屠殺	-9159
履歷	-9160
山下	-9161
巡迴	-9162
已在	-9163
巴克	-9164
巴釐	-9165
市委	-9166
帶走	-9167
常被	-9168
幕後	-9169
平整	-9170
年限	-9171
底部	-9172
座椅	-9173
心神	-9174
快篩	-9175
思悟	-9176
急速	-9177
急需	-9178
惡的	-9179
愈發	-9180
愉快	-9181
感冒	-9182
憑藉	-9183
我沒	-9184
所用	-9185
所言	-9186
打得	-9187
找我	-9188
技藝	-9189
把我	-9190
把手	-9191
抑或	-9192
投降	-9193
抨擊	-9194
拜訪	-9195
拿着	-9196
指令	-9197
描繪	-9198
損耗	-9199
攝護	-9200
支柱	-9201
收縮	-9202
整潔	-9203
文廟	-9204
斯蒂	-9205
新穎	-9206
日郎	-9207
早年	-9208
明明	-9209
星團	-9210
是小	-9211
是想	-9212
時程	-9213
最長	-9214
會以	-9215
會和	-9216
會比	-9217
有序	-9218
望著	-9219
木材	-9220
未幾	-9221
本是	-9222
本能	-9223
東華	-9224
果真	-9225
校友	-9226
桌面	-9227
棒球	-9228
楓林	-9229
業內	-9230
樂園	-9231
樓上	-9232
樓的	-9233
樣品	-9234
權的	-9235
次於	-9236
止於	-9237
正值	-9238
此中	-9239
殘缺	-9240
段的	-9241
殺手	-9242
每人	-9243
比重	-9244
水量	-9245
沉浸	-9246
沙皇	-9247
河邊	-9248
波音	-9249
流年	-9250
流體	-9251
液晶	-9252
淘寶	-9253
減緩	-9254
源頭	-9255
滅菌	-9256
演繹	-9257
漲幅	-9258
潔淨	-9259
澳大	-9260
濕潤	-9261
為他	-9262
為期	-9263
無一	-9264
無休	-9265
無異	-9266
無缺	-9267
然大	-9268
煙退	-9269
熱點	-9270
爭奪	-9271
爲啥	-9272
父皇	-9273
爾夫	-9274
牢固	-9275
狐疑	-9276
獨具	-9277
獲勝	-9278
現況	-9279
瑪麗	-9280
甜蜜	-9281
甜點	-9282
生了	-9283
生殖	-9284
產值	-9285
產物	-9286
界限	-9287
留學	-9288
疑惑	-9289
疑慮	-9290
發作	-9291
發達	-9292
的來	-9293
的公	-9294
的病	-9295
皆可	-9296
皮革	-9297
監視	-9298
相公	-9299
相遇	-9300
看不	-9301
着一	-9302
神志	-9303
神色	-9304
神通	-9305
科恩	-9306
穩健	-9307
穩固	-9308
空的	-9309
空軍	-9310
穿搭	-9311
站了	-9312
等你	-9313
簡便	-9314
簡潔	-9315
籌備	-9316
粒徑	-9317
精華	-9318
納稅	-9319
素食	-9320
緊要	-9321
編譯	-9322
總計	-9323
罰款	-9324
美女	-9325
美容	-9326
而得	-9327
耳枕	-9328
肉棒	-9329
腦筋	-9330
腸道	-9331
至上	-9332
至極	-9333
船上	-9334
若何	-9335
菜單	-9336
萬古	-9337
萬多	-9338
萬的	-9339
蕭彥	-9340
薄膜	-9341
虎尾	-9342
處事	-9343
虛實	-9344
裂紋	-9345
製冷	-9346
見得	-9347
視網	-9348
視訊	-9349
觸控	-9350
設或	-9351
試著	-9352
誤解	-9353
誰都	-9354
談到	-9355
謀劃	-9356
謂之	-9357
護照	-9358
豪門	-9359
負債	-9360
財運	-9361
貧窮	-9362
資歷	-9363
起立	-9364
越是	-9365
趕回	-9366
趣味	-9367
較小	-9368
辦學	-9369
迫害	-9370
追殺	-9371
逃離	-9372
這張	-9373
過渡	-9374
過著	-9375
遺址	-9376
還未	-9377
邊條	-9378
郵政	-9379
鄰居	-9380
配音	-9381
重回	-9382
重心	-9383
重現	-9384
量身	-9385
金黃	-9386
銜接	-9387
鋼筋	-9388
鋼絲	-9389
鍍鋅	-9390
鍛煉	-9391
鎮守	-9392
間隔	-9393
阿偉	-9394
院士	-9395
隆重	-9396
隱瞞	-9397
集結	-9398
難過	-9399
雨水	-9400
雲斂	-9401
電線	-9402
露天	-9403
靜的	-9404
領路	-9405
風氣	-9406
飛往	-9407
飼養	-9408
駱駝	-9409
體貼	-9410
鬥爭	-9411
黑的	-9412
VIP	-9413
act	-9414
ail	-9415
ash	-9416
ath	-9417
ble	-9418
ear	-9419
ony	-9420
ron	-9421
▁??	-9422
▁AZ	-9423
▁IS	-9424
▁NT	-9425
▁PC	-9426
▁we	-9427
▁只是	-9428
▁她倆	-9429
▁她們	-9430
▁孟拂	-9431
▁安裝	-9432
▁手機	-9433
▁指出	-9434
▁歡迎	-9435
▁此刻	-9436
▁看著	-9437
▁萬元	-9438
▁蘇曉	-9439
▁這樣	-9440
▁隨後	-9441
一樣的	-9442
中表示	-9443
之後的	-9444
也因此	-9445
也因為	-9446
也非常	-9447
了出來	-9448
什麼都	-9449
今天的	-9450
他表示	-9451
但因為	-9452
你必須	-9453
來不及	-9454
保持在	-9455
全面的	-9456
典型的	-9457
再一次	-9458
出版社	-9459
努力的	-9460
又一次	-9461
告訴我	-9462
哪門子	-9463
因為我	-9464
在地上	-9465
在歐洲	-9466
在自己	-9467
在過去	-9468
執行的	-9469
基礎上	-9470
大主教	-9471
大聯盟	-9472
太大的	-9473
女主角	-9474
好傢伙	-9475
如果要	-9476
它可以	-9477
對他的	-9478
就算是	-9479
局局長	-9480
工作時	-9481
市中心	-9482
年夏季	-9483
幼兒園	-9484
座談會	-9485
建設的	-9486
形式的	-9487
很重要	-9488
必須在	-9489
成員國	-9490
所不及	-9491
技術和	-9492
控制器	-9493
攝護腺	-9494
昂貴的	-9495
時期的	-9496
最近的	-9497
有一條	-9498
望遠鏡	-9499
決不能	-9500
注意力	-9501
為企業	-9502
特色的	-9503
當我們	-9504
的一位	-9505
的人員	-9506
的大型	-9507
的工具	-9508
的操作	-9509
的數量	-9510
的未來	-9511
的核心	-9512
的民眾	-9513
的眼神	-9514
的經驗	-9515
的自由	-9516
的角色	-9517
的訊息	-9518
的身體	-9519
的道路	-9520
的音樂	-9521
瞭解到	-9522
禁不住	-9523
程度的	-9524
等因素	-9525
等多種	-9526
等方式	-9527
給我們	-9528
經濟的	-9529
聚乙烯	-9530
自個兒	-9531
臺積電	-9532
芝加哥	-9533
莫過於	-9534
董事會	-9535
蓄電池	-9536
蛋白質	-9537
見不鮮	-9538
詹姆斯	-9539
說到底	-9540
這次的	-9541
造成了	-9542
還包括	-9543
還是會	-9544
重機槍	-9545
銷售額	-9546
開放的	-9547
開發者	-9548
關鍵字	-9549
阿根廷	-9550
降低了	-9551
離開了	-9552
零部件	-9553
青年人	-9554
預期的	-9555
lass	-9556
very	-9557
▁BNT	-9558
▁app	-9559
▁伺服器	-9560
▁億日圓	-9561
世界各地	-9562
中國人民	-9563
五湖四海	-9564
人力資源	-9565
作業系統	-9566
其中一個	-9567
在網路上	-9568
安全生產	-9569
強迫失蹤	-9570
煙退雲斂	-9571
用戶提供	-9572
的重要性	-9573
眉眼高低	-9574
科技大學	-9575
突如其來	-9576
立法委員	-9577
轉型升級	-9578
隱蔽行動	-9579
電子垃圾	-9580
電子產品	-9581
魯魚亥豕	-9582
廣泛應用於	-9583
科技有限公司	-9584
AD	-9585
An	-9586
CS	-9587
Fe	-9588
Fi	-9589
Re	-9590
Th	-9591
co	-9592
ru	-9593
we	-9594
za	-9595
▁吳	-9596
▁場	-9597
▁季	-9598
▁寧	-9599
▁左	-9600
▁接	-9601
▁洛	-9602
▁聖	-9603
▁行	-9604
▁話	-9605
▁連	-9606
▁都	-9607
▁銀	-9608
▁開	-9609
▁青	-9610
一堆	-9611
一字	-9612
一見	-9613
一部	-9614
三名	-9615
三層	-9616
三軍	-9617
上人	-9618
上架	-9619
上臺	-9620
下游	-9621
不含	-9622
不回	-9623
不息	-9624
不服	-9625
不生	-9626
不興	-9627
不需	-9628
不願	-9629
不高	-9630
世間	-9631
中天	-9632
中方	-9633
中旬	-9634
中藥	-9635
之名	-9636
之子	-9637
之軀	-9638
之餘	-9639
九年	-9640
也太	-9641
乾旱	-9642
了小	-9643
二字	-9644
交談	-9645
人一	-9646
代的	-9647
以防	-9648
伙伴	-9649
佈滿	-9650
你我	-9651
便可	-9652
倉庫	-9653
假定	-9654
停頓	-9655
偶像	-9656
偶然	-9657
傳聞	-9658
儀表	-9659
光學	-9660
光澤	-9661
入場	-9662
全然	-9663
兩條	-9664
公正	-9665
共建	-9666
共通	-9667
再到	-9668
冷暖	-9669
出場	-9670
出演	-9671
出臺	-9672
出言	-9673
分發	-9674
刑部	-9675
制服	-9676
制訂	-9677
刻板	-9678
則為	-9679
剛纔	-9680
力爭	-9681
加倍	-9682
勇於	-9683
勉強	-9684
北海	-9685
匯款	-9686
區間	-9687
升溫	-9688
卷積	-9689
又會	-9690
及早	-9691
受惠	-9692
叫聲	-9693
可望	-9694
向下	-9695
向前	-9696
呱嗒	-9697
和睦	-9698
哪兒	-9699
哪種	-9700
唐朝	-9701
商榷	-9702
問了	-9703
問他	-9704
善良	-9705
喪偶	-9706
嗅覺	-9707
嚇得	-9708
回國	-9709
回身	-9710
國人	-9711
國子	-9712
圓形	-9713
地形	-9714
執導	-9715
堪稱	-9716
填料	-9717
境外	-9718
增大	-9719
壟斷	-9720
外來	-9721
外籍	-9722
外資	-9723
夢幻	-9724
大膽	-9725
天使	-9726
天內	-9727
天師	-9728
太上	-9729
太歲	-9730
太高	-9731
如意	-9732
如鏡	-9733
定為	-9734
客車	-9735
宣稱	-9736
宮的	-9737
實名	-9738
實是	-9739
實話	-9740
寧毅	-9741
寬度	-9742
小人	-9743
就先	-9744
就從	-9745
就行	-9746
就該	-9747
局的	-9748
層級	-9749
履行	-9750
山林	-9751
工傷	-9752
工序	-9753
市府	-9754
布魯	-9755
年以	-9756
底線	-9757
店員	-9758
張開	-9759
得分	-9760
從這	-9761
微小	-9762
德里	-9763
心坎	-9764
心想	-9765
心明	-9766
心裏	-9767
心驚	-9768
快慢	-9769
念凡	-9770
悠悠	-9771
惡化	-9772
想在	-9773
意念	-9774
我先	-9775
手腳	-9776
打工	-9777
批判	-9778
批準	-9779
抓好	-9780
折扣	-9781
抬頭	-9782
抽獎	-9783
拋光	-9784
拼接	-9785
指甲	-9786
按鍵	-9787
排隊	-9788
推介	-9789
提倡	-9790
揹包	-9791
撕裂	-9792
撤離	-9793
收回	-9794
改爲	-9795
放假	-9796
數千	-9797
文創	-9798
新社	-9799
施行	-9800
日光	-9801
早前	-9802
早洩	-9803
旺盛	-9804
昆明	-9805
明亮	-9806
星辰	-9807
時分	-9808
時而	-9809
時至	-9810
更深	-9811
更要	-9812
書寫	-9813
書面	-9814
曾被	-9815
最小	-9816
有其	-9817
有種	-9818
有線	-9819
末尾	-9820
本會	-9821
板材	-9822
柴油	-9823
概率	-9824
榮耀	-9825
模樣	-9826
機等	-9827
欺騙	-9828
款的	-9829
步伐	-9830
死在	-9831
殺菌	-9832
比方	-9833
民意	-9834
民航	-9835
氣泡	-9836
氣流	-9837
氣質	-9838
污泥	-9839
沙場	-9840
沙漠	-9841
沿著	-9842
法界	-9843
泥牛	-9844
海的	-9845
海賊	-9846
海邊	-9847
混亂	-9848
混淆	-9849
清華	-9850
演變	-9851
激活	-9852
火的	-9853
為由	-9854
無以	-9855
熱病	-9856
熱的	-9857
營利	-9858
爲之	-9859
爲人	-9860
爲此	-9861
牆壁	-9862
牢牢	-9863
特的	-9864
琉璃	-9865
產後	-9866
用電	-9867
男孩	-9868
異物	-9869
當道	-9870
畿輦	-9871
病房	-9872
發育	-9873
白雲	-9874
的打	-9875
皺了	-9876
盟友	-9877
直流	-9878
直轄	-9879
真理	-9880
真誠	-9881
瞬即	-9882
破了	-9883
破滅	-9884
硫化	-9885
硬化	-9886
神態	-9887
票數	-9888
稅收	-9889
稱讚	-9890
空降	-9891
穿過	-9892
算了	-9893
算作	-9894
約會	-9895
紅的	-9896
紓困	-9897
紫色	-9898
累月	-9899
細膩	-9900
終久	-9901
組長	-9902
結晶	-9903
給出	-9904
統統	-9905
網址	-9906
網段	-9907
緊縮	-9908
縣市	-9909
總共	-9910
總數	-9911
繁星	-9912
置於	-9913
置疑	-9914
羊川	-9915
羽毛	-9916
習性	-9917
翻轉	-9918
老天	-9919
老鼠	-9920
而無	-9921
聚落	-9922
聞名	-9923
肺腑	-9924
能耗	-9925
脈絡	-9926
脖子	-9927
腳下	-9928
自發	-9929
至多	-9930
萊爾	-9931
萬家	-9932
落差	-9933
蓮花	-9934
蔓延	-9935
蘿蔔	-9936
螺栓	-9937
血的	-9938
血肉	-9939
行人	-9940
衝動	-9941
衝向	-9942
衝破	-9943
裁決	-9944
要點	-9945
見見	-9946
規律	-9947
親切	-9948
觀音	-9949
誠意	-9950
說著	-9951
說要	-9952
諧調	-9953
諮商	-9954
諸如	-9955
護膚	-9956
變異	-9957
豪華	-9958
豬肉	-9959
買房	-9960
貼文	-9961
走入	-9962
起伏	-9963
超商	-9964
越大	-9965
趕快	-9966
跟蹤	-9967
跳動	-9968
身在	-9969
躲避	-9970
躺在	-9971
軀體	-9972
車型	-9973
車子	-9974
車次	-9975
輪迴	-9976
轎車	-9977
辣椒	-9978
農曆	-9979
迴廊	-9980
逃避	-9981
這名	-9982
這會	-9983
通報	-9984
通身	-9985
連署	-9986
進的	-9987
違規	-9988
適才	-9989
選取	-9990
避開	-9991
金山	-9992
錯處	-9993
長久	-9994
長得	-9995
長空	-9996
長輩	-9997
開支	-9998
開班	-9999
關稅	-10000
闡述	-10001
防備	-10002
陣營	-10003
除濕	-10004
陰影	-10005
隆隆	-10006
集合	-10007
雙人	-10008
霸道	-10009
青睞	-10010
面膜	-10011
順便	-10012
頻頻	-10013
風光	-10014
風雨	-10015
鳳凰	-10016
麥克	-10017
黑白	-10018
黨團	-10019
龍寺	-10020
龍的	-10021
Arm	-10022
box	-10023
eam	-10024
erv	-10025
ger	-10026
let	-10027
man	-10028
oll	-10029
omp	-10030
oun	-10031
ous	-10032
▁IG	-10033
▁Sh	-10034
▁Su	-10035
▁go	-10036
▁上海	-10037
▁位於	-10038
▁全球	-10039
▁公斤	-10040
▁去年	-10041
▁只有	-10042
▁同樣	-10043
▁在這	-10044
▁如今	-10045
▁本文	-10046
▁研究	-10047
▁系統	-10048
▁聽到	-10049
▁說着	-10050
一口氣	-10051
一直是	-10052
一聲雷	-10053
不只是	-10054
不在乎	-10055
不外乎	-10056
不小心	-10057
不少人	-10058
不復返	-10059
不應該	-10060
不知所	-10061
主持人	-10062
之一的	-10063
也不敢	-10064
也有人	-10065
了一場	-10066
代表的	-10067
代表著	-10068
你自己	-10069
來看看	-10070
保護區	-10071
信息化	-10072
做一個	-10073
內心的	-10074
冇想到	-10075
到頭來	-10076
剎那間	-10077
剛開始	-10078
創始人	-10079
劉善明	-10080
十字架	-10081
參與者	-10082
受到了	-10083
受訪者	-10084
只能說	-10085
可能有	-10086
在國內	-10087
多年前	-10088
大年夜	-10089
大成殿	-10090
太多了	-10091
奧運會	-10092
好容易	-10093
客製化	-10094
實在是	-10095
將繼續	-10096
導致的	-10097
小孩子	-10098
平臺的	-10099
建築師	-10100
微生物	-10101
愛好者	-10102
我也不	-10103
我公司	-10104
我自己	-10105
才發現	-10106
改名為	-10107
文化財	-10108
新聞稿	-10109
於今年	-10110
旅行社	-10111
是一項	-10112
是不會	-10113
是否會	-10114
時代的	-10115
普通話	-10116
有一點	-10117
有別於	-10118
有所聞	-10119
水平的	-10120
水處理	-10121
沉聲道	-10122
浙江省	-10123
潤滑油	-10124
物聯網	-10125
特朗普	-10126
特殊的	-10127
玩意兒	-10128
發布了	-10129
的傳統	-10130
的品質	-10131
的商業	-10132
的家庭	-10133
的心理	-10134
的方向	-10135
的日本	-10136
的畫面	-10137
的目光	-10138
的程度	-10139
的管理	-10140
的資格	-10141
等領域	-10142
糖尿病	-10143
美國人	-10144
聯合會	-10145
能力的	-10146
自家的	-10147
與倫比	-10148
英格蘭	-10149
莫斯科	-10150
被認為	-10151
設定的	-10152
較強的	-10153
轉化為	-10154
轉瞬間	-10155
部落格	-10156
都會有	-10157
開始的	-10158
關鍵詞	-10159
除塵器	-10160
陳正泰	-10161
電影的	-10162
顯示屏	-10163
風格的	-10164
香港的	-10165
LINE	-10166
ence	-10167
loud	-10168
▁Mus	-10169
▁how	-10170
▁new	-10171
▁李世民	-10172
一去不返	-10173
一直以來	-10174
一般來說	-10175
下轄以下	-10176
二氧化碳	-10177
假面騎士	-10178
其中一種	-10179
出人意料	-10180
可以實現	-10181
地方政府	-10182
多多益善	-10183
大窩口邨	-10184
情不自禁	-10185
意想不到	-10186
數據分析	-10187
有言在先	-10188
武道本尊	-10189
每個人的	-10190
泥牛入海	-10191
注意的是	-10192
澳大利亞	-10193
百分之百	-10194
社交媒體	-10195
經濟效益	-10196
縣的一個	-10197
舉例來說	-10198
風流雲散	-10199
高等教育	-10200
點了點頭	-10201
atGPT	-10202
▁延伸閱讀	-10203
平地一聲雷	-10204
值得一提的是	-10205
▁Android	-10206
EM	-10207
Hz	-10208
II	-10209
OO	-10210
SL	-10211
de	-10212
ri	-10213
||	-10214
▁並	-10215
▁凡	-10216
▁女	-10217
▁定	-10218
▁少	-10219
▁應	-10220
▁成	-10221
▁戰	-10222
▁房	-10223
▁法	-10224
▁然	-10225
▁種	-10226
▁紅	-10227
▁藍	-10228
▁隻	-10229
▁魔	-10230
一夜	-10231
一拳	-10232
一旁	-10233
一沉	-10234
一端	-10235
一籌	-10236
一說	-10237
三壘	-10238
上車	-10239
下單	-10240
下子	-10241
下班	-10242
不合	-10243
不單	-10244
不捨	-10245
不着	-10246
中也	-10247
中立	-10248
中被	-10249
串聯	-10250
主之	-10251
久了	-10252
之差	-10253
之戰	-10254
之身	-10255
九泉	-10256
也算	-10257
乾二	-10258
乾的	-10259
了大	-10260
了她	-10261
二者	-10262
五洲	-10263
井蓋	-10264
亞軍	-10265
人潮	-10266
他便	-10267
他為	-10268
代幣	-10269
休想	-10270
伸出	-10271
伸手	-10272
但仍	-10273
但有	-10274
位在	-10275
低位	-10276
低碳	-10277
住戶	-10278
你所	-10279
佩戴	-10280
便能	-10281
俄頃	-10282
信義	-10283
修建	-10284
修理	-10285
假的	-10286
傑出	-10287
備份	-10288
兀自	-10289
元帥	-10290
光照	-10291
克力	-10292
免於	-10293
全都	-10294
八卦	-10295
共用	-10296
冷漠	-10297
出乎	-10298
分數	-10299
切入	-10300
別稱	-10301
到這	-10302
劇中	-10303
加裝	-10304
勇士	-10305
動向	-10306
化了	-10307
北約	-10308
十餘	-10309
千秋	-10310
升至	-10311
叔叔	-10312
只看	-10313
可就	-10314
右手	-10315
各級	-10316
同類	-10317
向他	-10318
君王	-10319
否定	-10320
哥倫	-10321
哪裏	-10322
問卷	-10323
問答	-10324
器和	-10325
器械	-10326
噴射	-10327
噴砂	-10328
四起	-10329
因子	-10330
囫圇	-10331
國安	-10332
園林	-10333
在東	-10334
在水	-10335
地名	-10336
地在	-10337
執照	-10338
堆積	-10339
場中	-10340
塑性	-10341
塔利	-10342
塔的	-10343
增進	-10344
外側	-10345
多麼	-10346
夠了	-10347
大關	-10348
大體	-10349
天王	-10350
天道	-10351
夷易	-10352
奇的	-10353
契機	-10354
套餐	-10355
奮勇	-10356
如若	-10357
妖王	-10358
婆婆	-10359
婚紗	-10360
媽的	-10361
子中	-10362
存亡	-10363
學到	-10364
學士	-10365
安的	-10366
宮中	-10367
家主	-10368
容納	-10369
實習	-10370
寫著	-10371
封建	-10372
專為	-10373
專賣	-10374
專頁	-10375
導覽	-10376
就將	-10377
尾巴	-10378
屋邨	-10379
島嶼	-10380
巡視	-10381
工商	-10382
巨人	-10383
巴馬	-10384
市值	-10385
帝虎	-10386
帶頭	-10387
幫手	-10388
平價	-10389
平民	-10390
平淡	-10391
年老	-10392
幻想	-10393
府的	-10394
廠房	-10395
建置	-10396
弗成	-10397
張嘴	-10398
強力	-10399
彈簧	-10400
彩色	-10401
往返	-10402
後會	-10403
微波	-10404
忙碌	-10405
思議	-10406
性及	-10407
性地	-10408
恢複	-10409
想說	-10410
愉悅	-10411
愛人	-10412
感知	-10413
愣了	-10414
愷撒	-10415
懷裡	-10416
我將	-10417
我把	-10418
我這	-10419
戴上	-10420
手道	-10421
才女	-10422
才智	-10423
打壓	-10424
打鐵	-10425
投信	-10426
抱有	-10427
抱着	-10428
抽煙	-10429
招式	-10430
拯救	-10431
掃帚	-10432
探望	-10433
探訪	-10434
控製	-10435
播出	-10436
撼動	-10437
擡手	-10438
收了	-10439
改制	-10440
放射	-10441
散步	-10442
數值	-10443
文獻	-10444
斐濟	-10445
方塊	-10446
昆蟲	-10447
明晰	-10448
星子	-10449
是神	-10450
時不	-10451
時報	-10452
時節	-10453
晚會	-10454
晶圓	-10455
最愛	-10456
最最	-10457
會後	-10458
有害	-10459
有權	-10460
有無	-10461
朝向	-10462
木質	-10463
未央	-10464
本作	-10465
本月	-10466
杉磯	-10467
李家	-10468
柏林	-10469
楊梅	-10470
構思	-10471
樂意	-10472
標識	-10473
樞紐	-10474
機身	-10475
檸檬	-10476
歌劇	-10477
步槍	-10478
武者	-10479
毛巾	-10480
油煙	-10481
沾染	-10482
泉州	-10483
泉水	-10484
法師	-10485
法門	-10486
活命	-10487
流水	-10488
海水	-10489
消解	-10490
深思	-10491
混沌	-10492
清朝	-10493
清醒	-10494
測定	-10495
溯源	-10496
滅火	-10497
漆黑	-10498
演藝	-10499
漩渦	-10500
澌滅	-10501
濃縮	-10502
瀰漫	-10503
灌裝	-10504
火舞	-10505
無害	-10506
無礙	-10507
無縫	-10508
無聊	-10509
無遺	-10510
無間	-10511
然一	-10512
煙消	-10513
照例	-10514
熟練	-10515
爭論	-10516
片刻	-10517
狠狠	-10518
玩樂	-10519
珍惜	-10520
球季	-10521
甚而	-10522
用上	-10523
由他	-10524
申訴	-10525
界線	-10526
略有	-10527
畫作	-10528
當他	-10529
當勞	-10530
病變	-10531
瘋了	-10532
發力	-10533
發炎	-10534
發病	-10535
的二	-10536
的半	-10537
的嗎	-10538
的四	-10539
的聖	-10540
的軍	-10541
的轉	-10542
的靈	-10543
的面	-10544
盡數	-10545
盤的	-10546
相助	-10547
相處	-10548
省道	-10549
真仙	-10550
眨眼	-10551
眼看	-10552
眾所	-10553
睫毛	-10554
破裂	-10555
磨滅	-10556
祖母	-10557
神國	-10558
神尊	-10559
祭出	-10560
秉持	-10561
科系	-10562
租屋	-10563
稱的	-10564
穆罕	-10565
穿戴	-10566
立時	-10567
立足	-10568
章程	-10569
等了	-10570
節的	-10571
精油	-10572
精靈	-10573
糾紛	-10574
紅酒	-10575
紙上	-10576
紙本	-10577
紫外	-10578
組建	-10579
結尾	-10580
經國	-10581
經銷	-10582
綜藝	-10583
綢繆	-10584
綿綿	-10585
線和	-10586
缺口	-10587
美軍	-10588
羨慕	-10589
義工	-10590
老是	-10591
老者	-10592
老舊	-10593
而入	-10594
而我	-10595
耳朵	-10596
職權	-10597
肌體	-10598
肥胖	-10599
能的	-10600
腦中	-10601
腦海	-10602
腳踏	-10603
膠水	-10604
自律	-10605
自殺	-10606
自爆	-10607
臺股	-10608
與同	-10609
與會	-10610
航線	-10611
般若	-10612
良多	-10613
若不	-10614
若要	-10615
莫名	-10616
莫測	-10617
萬年	-10618
落入	-10619
葉片	-10620
葬禮	-10621
處罰	-10622
虛影	-10623
虛空	-10624
螺桿	-10625
血脈	-10626
行使	-10627
行將	-10628
衝到	-10629
衝刺	-10630
被打	-10631
西歐	-10632
覺醒	-10633
觀衆	-10634
角逐	-10635
計的	-10636
訛謬	-10637
設想	-10638
評為	-10639
試劑	-10640
說他	-10641
談及	-10642
論述	-10643
諸天	-10644
識字	-10645
譬如	-10646
譴責	-10647
護欄	-10648
豆腐	-10649
豐收	-10650
財報	-10651
貼近	-10652
賬戶	-10653
購入	-10654
赫然	-10655
越好	-10656
跌幅	-10657
跨境	-10658
路邊	-10659
身者	-10660
軀幹	-10661
車內	-10662
車身	-10663
車載	-10664
轉臉	-10665
追隨	-10666
退款	-10667
送給	-10668
透亮	-10669
逐一	-10670
連同	-10671
適宜	-10672
遼寧	-10673
郭美	-10674
都係	-10675
都已	-10676
配方	-10677
釋迦	-10678
里斯	-10679
重復	-10680
重組	-10681
釐米	-10682
鋼板	-10683
錄製	-10684
錯亂	-10685
鑄造	-10686
開創	-10687
開店	-10688
開闢	-10689
降至	-10690
院的	-10691
陽市	-10692
隆德	-10693
隕滅	-10694
隨手	-10695
隱隱	-10696
雄獅	-10697
雙眸	-10698
雙面	-10699
雜物	-10700
難民	-10701
電解	-10702
電量	-10703
電鍍	-10704
露營	-10705
青娥	-10706
面板	-10707
韶光	-10708
預先	-10709
頭皮	-10710
飲品	-10711
飽滿	-10712
馬英	-10713
馬達	-10714
駭人	-10715
骨幹	-10716
高空	-10717
魔鬼	-10718
鴻溝	-10719
麗絲	-10720
麗莎	-10721
黑暗	-10722
默德	-10723
點值	-10724
黨史	-10725
鼠輩	-10726
鼻子	-10727
TVB	-10728
alk	-10729
erc	-10730
ico	-10731
ide	-10732
ish	-10733
min	-10734
ner	-10735
rad	-10736
ree	-10737
ric	-10738
rou	-10739
ult	-10740
▁An	-10741
▁CO	-10742
▁Ex	-10743
▁TV	-10744
▁世界	-10745
▁他倆	-10746
▁其他	-10747
▁微軟	-10748
▁會議	-10749
▁月底	-10750
▁歲的	-10751
▁無論	-10752
▁用戶	-10753
▁當前	-10754
▁經過	-10755
▁許多	-10756
▁這麼	-10757
▁通常	-10758
▁那些	-10759
▁陳然	-10760
一個是	-10761
一分鐘	-10762
一年的	-10763
上海市	-10764
上面的	-10765
下一步	-10766
不允許	-10767
不存在	-10768
不足以	-10769
不適合	-10770
也表示	-10771
了一期	-10772
人來說	-10773
他們也	-10774
付出的	-10775
以確保	-10776
以至於	-10777
但如果	-10778
使用時	-10779
使用本	-10780
全壘打	-10781
冷不防	-10782
到時候	-10783
前衛號	-10784
副局長	-10785
動物園	-10786
化合物	-10787
半小時	-10788
印度的	-10789
危險品	-10790
即日起	-10791
句話說	-10792
可以將	-10793
可愛的	-10794
和他的	-10795
喫起來	-10796
國家隊	-10797
國防部	-10798
圍繞著	-10799
在家中	-10800
在此時	-10801
夷易遠	-10802
好像是	-10803
如何在	-10804
姓男子	-10805
實際的	-10806
將成為	-10807
專業化	-10808
對這個	-10809
小小的	-10810
差一點	-10811
彌陀佛	-10812
很簡單	-10813
很高興	-10814
後來的	-10815
得到的	-10816
微中子	-10817
性生活	-10818
應該要	-10819
我們是	-10820
所以要	-10821
才開始	-10822
打破了	-10823
排行榜	-10824
接受了	-10825
控制的	-10826
日行跡	-10827
是一期	-10828
是全球	-10829
是怎樣	-10830
是沒有	-10831
時表示	-10832
更多人	-10833
最低的	-10834
最多的	-10835
有必要	-10836
條件的	-10837
每一次	-10838
比較好	-10839
河南省	-10840
洛杉磯	-10841
流動性	-10842
深刻的	-10843
深深的	-10844
添加劑	-10845
為主要	-10846
為核心	-10847
為重要	-10848
獲得的	-10849
環境中	-10850
生命的	-10851
生活在	-10852
發生的	-10853
的一項	-10854
的世界	-10855
的做法	-10856
的地位	-10857
的城市	-10858
的支持	-10859
的質量	-10860
的電影	-10861
知名度	-10862
知名的	-10863
確確實	-10864
社會的	-10865
笑一聲	-10866
第二天	-10867
第十三	-10868
等各種	-10869
等相關	-10870
老人家	-10871
耐腐蝕	-10872
能力和	-10873
自行車	-10874
臺中市	-10875
與我們	-10876
行李箱	-10877
表面上	-10878
表面的	-10879
要不要	-10880
計劃的	-10881
許可證	-10882
讓孩子	-10883
跟我們	-10884
身邊的	-10885
這樣做	-10886
運動的	-10887
選擇了	-10888
那些人	-10889
鐵路局	-10890
離不開	-10891
電氣化	-10892
領導者	-10893
麥當勞	-10894
黃羊川	-10895
Meta	-10896
mail	-10897
ould	-10898
ower	-10899
▁you	-10900
▁如果你	-10901
▁我們的	-10902
▁許七安	-10903
▁韓三千	-10904
世衛組織	-10905
中共中央	-10906
中國經濟	-10907
主要用於	-10908
也是一個	-10909
充分發揮	-10910
全國人大	-10911
千萬不要	-10912
受歡迎的	-10913
已經成為	-10914
快速發展	-10915
應用程序	-10916
我們需要	-10917
戰略合作	-10918
時有所聞	-10919
煙消雲散	-10920
的可能性	-10921
穆罕默德	-10922
經紀公司	-10923
至關重要	-10924
這些問題	-10925
這種情況	-10926
選美比賽	-10927
金融機構	-10928
高新技術	-10929
魯魚帝虎	-10930
▁SARS	-10931
一去不復返	-10932
具有良好的	-10933
屬於自己的	-10934
▁elect	-10935
奧林匹克運動會	-10936
▁Malaysia	-10937
!?	-10938
--	-10939
BO	-10940
BT	-10941
FP	-10942
MP	-10943
af	-10944
cr	-10945
ey	-10946
ml	-10947
to	-10948
zh	-10949
▁$	-10950
▁七	-10951
▁佛	-10952
▁兆	-10953
▁八	-10954
▁半	-10955
▁夜	-10956
▁學	-10957
▁山	-10958
▁放	-10959
▁朱	-10960
▁梅	-10961
▁直	-10962
▁華	-10963
▁非	-10964
▁韓	-10965
一倍	-10966
一念	-10967
一晃	-10968
一輛	-10969
三元	-10970
三家	-10971
三振	-10972
三日	-10973
三點	-10974
上位	-10975
上場	-10976
上次	-10977
不一	-10978
不做	-10979
不善	-10980
不打	-10981
不滅	-10982
不經	-10983
不難	-10984
世家	-10985
並可	-10986
並用	-10987
中年	-10988
之初	-10989
之所	-10990
之眼	-10991
之術	-10992
也冇	-10993
也難	-10994
了對	-10995
二手	-10996
二維	-10997
交所	-10998
交集	-10999
亮堂	-11000
人命	-11001
人壽	-11002
人能	-11003
仙人	-11004
任職	-11005
份子	-11006
但你	-11007
低價	-11008
住的	-11009
作息	-11010
例行	-11011
依次	-11012
侵蝕	-11013
便了	-11014
信貸	-11015
偉力	-11016
做起	-11017
健保	-11018
傢夥	-11019
傷心	-11020
元嬰	-11021
光復	-11022
光榮	-11023
光譜	-11024
克圖	-11025
入到	-11026
內建	-11027
兩座	-11028
兩隻	-11029
六腑	-11030
兼任	-11031
再看	-11032
再行	-11033
凝視	-11034
出新	-11035
出爐	-11036
出面	-11037
分店	-11038
分級	-11039
切爾	-11040
到他	-11041
到訪	-11042
到貨	-11043
制裁	-11044
券商	-11045
刺刀	-11046
劇場	-11047
力士	-11048
力學	-11049
功力	-11050
功耗	-11051
勃起	-11052
匈牙	-11053
化成	-11054
區內	-11055
十月	-11056
升任	-11057
半天	-11058
原地	-11059
參閱	-11060
取自	-11061
只想	-11062
各族	-11063
周身	-11064
和南	-11065
和史	-11066
和對	-11067
咽喉	-11068
唱片	-11069
唸佛	-11070
商圈	-11071
喝酒	-11072
單單	-11073
嗬嗬	-11074
嘿嘿	-11075
嚮往	-11076
回想	-11077
困惑	-11078
固化	-11079
圖紙	-11080
圖表	-11081
在和	-11082
在裡	-11083
在高	-11084
地把	-11085
地毯	-11086
地獄	-11087
地緣	-11088
地震	-11089
執著	-11090
堅守	-11091
塑造	-11092
增值	-11093
增速	-11094
壓制	-11095
多寡	-11096
多重	-11097
夜市	-11098
大專	-11099
大巫	-11100
大選	-11101
大陣	-11102
天子	-11103
天府	-11104
天時	-11105
太極	-11106
失誤	-11107
奇蹟	-11108
女排	-11109
女方	-11110
妥善	-11111
姓名	-11112
委實	-11113
威而	-11114
婦人	-11115
孔子	-11116
存有	-11117
守備	-11118
定要	-11119
宜蘭	-11120
客房	-11121
家常	-11122
察看	-11123
實務	-11124
實戰	-11125
專線	-11126
尊嚴	-11127
小兒	-11128
小黑	-11129
就已	-11130
尼奧	-11131
巧妙	-11132
巨龍	-11133
市的	-11134
布袋	-11135
師妹	-11136
師弟	-11137
常有	-11138
常用	-11139
平生	-11140
平的	-11141
年被	-11142
幸好	-11143
廈門	-11144
廉價	-11145
廣達	-11146
延緩	-11147
弄堂	-11148
引述	-11149
彷佛	-11150
很是	-11151
後在	-11152
後就	-11153
後感	-11154
後臺	-11155
徒弟	-11156
得起	-11157
從他	-11158
從天	-11159
從心	-11160
德魯	-11161
心生	-11162
心疼	-11163
心頭	-11164
快遞	-11165
快點	-11166
性感	-11167
悠閒	-11168
情趣	-11169
意氣	-11170
感嘆	-11171
感想	-11172
慷慨	-11173
憑證	-11174
成份	-11175
成套	-11176
我等	-11177
我跟	-11178
房內	-11179
所為	-11180
所見	-11181
所說	-11182
打卡	-11183
找個	-11184
投身	-11185
折不	-11186
抽象	-11187
拉丁	-11188
指向	-11189
指的	-11190
排出	-11191
排煙	-11192
接管	-11193
接續	-11194
推斷	-11195
換代	-11196
揭示	-11197
撤退	-11198
據說	-11199
擺放	-11200
收發	-11201
改用	-11202
攻略	-11203
救護	-11204
教皇	-11205
教科	-11206
散熱	-11207
敦促	-11208
斯基	-11209
斯洛	-11210
昔日	-11211
星神	-11212
春風	-11213
時下	-11214
晉升	-11215
景色	-11216
暢通	-11217
暢銷	-11218
更爲	-11219
更衣	-11220
最爲	-11221
會將	-11222
會談	-11223
月餅	-11224
有事	-11225
有益	-11226
服侍	-11227
服從	-11228
朝著	-11229
本就	-11230
本領	-11231
李成	-11232
李承	-11233
根基	-11234
極致	-11235
標本	-11236
樣式	-11237
正中	-11238
此舉	-11239
武術	-11240
殿下	-11241
比對	-11242
沒法	-11243
沖天	-11244
油的	-11245
洛克	-11246
洛西	-11247
海南	-11248
準則	-11249
準會	-11250
滿是	-11251
演奏	-11252
漸進	-11253
為本	-11254
為高	-11255
烘焙	-11256
焊縫	-11257
無不	-11258
無心	-11259
無性	-11260
煞尾	-11261
營建	-11262
爭先	-11263
爾達	-11264
牢記	-11265
物價	-11266
特意	-11267
獲批	-11268
珍貴	-11269
生病	-11270
男主	-11271
略知	-11272
畫的	-11273
異象	-11274
療癒	-11275
白宮	-11276
白衣	-11277
白金	-11278
白髮	-11279
百科	-11280
的六	-11281
的在	-11282
的字	-11283
的很	-11284
的短	-11285
的路	-11286
盡管	-11287
目不	-11288
相傳	-11289
相繼	-11290
相貌	-11291
省錢	-11292
真要	-11293
眸子	-11294
眼下	-11295
短片	-11296
矯正	-11297
硬體	-11298
碳酸	-11299
確乎	-11300
碼頭	-11301
礦山	-11302
神域	-11303
票選	-11304
禁制	-11305
福州	-11306
種的	-11307
空運	-11308
穿的	-11309
突兀	-11310
突變	-11311
竣工	-11312
第八	-11313
等着	-11314
篩選	-11315
簡易	-11316
簡訊	-11317
精細	-11318
紅北	-11319
納斯	-11320
納瓦	-11321
納米	-11322
紕繆	-11323
素材	-11324
累了	-11325
細微	-11326
細心	-11327
終生	-11328
組的	-11329
經貿	-11330
網的	-11331
締約	-11332
締造	-11333
縣人	-11334
總監	-11335
總督	-11336
繁瑣	-11337
繁雜	-11338
繳納	-11339
缺失	-11340
置信	-11341
置身	-11342
翻開	-11343
老二	-11344
老實	-11345
考古	-11346
者和	-11347
而外	-11348
耐心	-11349
聯名	-11350
肝臟	-11351
背上	-11352
脫穎	-11353
腫瘤	-11354
臉部	-11355
臉頰	-11356
自負	-11357
臺商	-11358
與否	-11359
艾瑞	-11360
花東	-11361
芳香	-11362
英屬	-11363
荃灣	-11364
莫不	-11365
華嚴	-11366
萊塢	-11367
萬分	-11368
萬水	-11369
萬萬	-11370
著她	-11371
蔡明	-11372
薩克	-11373
薪水	-11374
藥劑	-11375
蘇州	-11376
處分	-11377
衆號	-11378
街上	-11379
街市	-11380
表彰	-11381
表態	-11382
表露	-11383
衰退	-11384
被害	-11385
裝箱	-11386
裡弄	-11387
要被	-11388
角的	-11389
解說	-11390
訊號	-11391
記住	-11392
訪談	-11393
評級	-11394
該作	-11395
調味	-11396
調諧	-11397
請你	-11398
請您	-11399
諷刺	-11400
講究	-11401
變革	-11402
貝克	-11403
販賣	-11404
貴族	-11405
質問	-11406
走吧	-11407
起彼	-11408
趁著	-11409
越發	-11410
趕到	-11411
踏上	-11412
軌跡	-11413
近來	-11414
迷你	-11415
送來	-11416
透社	-11417
這不	-11418
這天	-11419
這篇	-11420
這讓	-11421
通的	-11422
通關	-11423
造價	-11424
造訪	-11425
遊行	-11426
遍及	-11427
遍野	-11428
達人	-11429
遠非	-11430
那張	-11431
那片	-11432
那隻	-11433
那頭	-11434
都大	-11435
都想	-11436
都曾	-11437
金馬	-11438
鋼琴	-11439
鍊金	-11440
鏈條	-11441
鏡子	-11442
鑑定	-11443
長江	-11444
長沙	-11445
長治	-11446
長相	-11447
門兒	-11448
閃閃	-11449
閉上	-11450
開間	-11451
關連	-11452
防衛	-11453
降到	-11454
降溫	-11455
陝西	-11456
陪同	-11457
陰莖	-11458
陰道	-11459
陽氣	-11460
隔膜	-11461
雙腿	-11462
離去	-11463
離岸	-11464
震動	-11465
霹靂	-11466
非要	-11467
頂端	-11468
須臾	-11469
預警	-11470
領略	-11471
頭痛	-11472
風波	-11473
風的	-11474
飛躍	-11475
食譜	-11476
飲酒	-11477
首個	-11478
首家	-11479
駕馭	-11480
驕傲	-11481
驟然	-11482
高檔	-11483
髮型	-11484
點幣	-11485
齊聲	-11486
!!!	-11487
OGO	-11488
ake	-11489
ame	-11490
ava	-11491
ese	-11492
ina	-11493
ley	-11494
obe	-11495
ock	-11496
ode	-11497
oss	-11498
ove	-11499
▁?”	-11500
▁ET	-11501
▁Ph	-11502
▁us	-11503
▁中文	-11504
▁之前	-11505
▁代表	-11506
▁以下	-11507
▁例如	-11508
▁原本	-11509
▁另一	-11510
▁嘉義	-11511
▁工作	-11512
▁很多	-11513
▁方緣	-11514
▁有人	-11515
▁本來	-11516
▁自然	-11517
▁這時	-11518
▁選擇	-11519
▁陸州	-11520
▁電池	-11521
一仍舊	-11522
一直到	-11523
一站式	-11524
一般在	-11525
一連串	-11526
三十年	-11527
上上下	-11528
不得了	-11529
不確定	-11530
不見得	-11531
並通過	-11532
之前的	-11533
也不知	-11534
也同樣	-11535
乾二淨	-11536
了什麼	-11537
事務所	-11538
但他們	-11539
但現在	-11540
但這些	-11541
但隨著	-11542
個百分	-11543
做一些	-11544
價值的	-11545
優惠券	-11546
優秀的	-11547
充足的	-11548
免疫力	-11549
免費的	-11550
內部的	-11551
全人類	-11552
全球的	-11553
全自動	-11554
分割槽	-11555
到最後	-11556
創作的	-11557
創作者	-11558
包含了	-11559
匈牙利	-11560
北京市	-11561
原有的	-11562
參加了	-11563
只有一	-11564
可以為	-11565
可直接	-11566
可行性	-11567
同學們	-11568
吸引了	-11569
吸引力	-11570
和安全	-11571
員工的	-11572
固定的	-11573
國資委	-11574
在其中	-11575
在此處	-11576
在生產	-11577
在疫情	-11578
地產商	-11579
基地臺	-11580
塔利班	-11581
境內的	-11582
大世界	-11583
大幅度	-11584
女性的	-11585
如此的	-11586
威而鋼	-11587
專注於	-11588
對不起	-11589
對應的	-11590
對方的	-11591
就好了	-11592
就必須	-11593
就知道	-11594
左右的	-11595
市面上	-11596
年輕的	-11597
怎麼看	-11598
性價比	-11599
愛立眼	-11600
我可以	-11601
我發現	-11602
或服務	-11603
所做的	-11604
手續費	-11605
拍了拍	-11606
提取物	-11607
政府對	-11608
旗下的	-11609
早期的	-11610
是一些	-11611
是一番	-11612
是一部	-11613
是這樣	-11614
更重要	-11615
最高點	-11616
會覺得	-11617
有效率	-11618
有超過	-11619
期工程	-11620
本地區	-11621
東山再	-11622
機械人	-11623
殖民地	-11624
比不上	-11625
民主黨	-11626
沃爾瑪	-11627
流量計	-11628
爾等的	-11629
玄黃星	-11630
理論上	-11631
生物學	-11632
生產力	-11633
留下來	-11634
留下的	-11635
當中的	-11636
的一半	-11637
的一大	-11638
的一座	-11639
的一條	-11640
的一番	-11641
的事物	-11642
的人士	-11643
的創新	-11644
的動作	-11645
的好處	-11646
的定義	-11647
的對象	-11648
的成績	-11649
的手段	-11650
的時辰	-11651
的最佳	-11652
的有效	-11653
的特性	-11654
的目的	-11655
的經營	-11656
的網站	-11657
的自然	-11658
的話題	-11659
的說道	-11660
相結合	-11661
真實的	-11662
研究生	-11663
稱之為	-11664
空氣中	-11665
站起來	-11666
第一位	-11667
管理和	-11668
綜合性	-11669
罪惡感	-11670
能有效	-11671
自然的	-11672
臺灣有	-11673
舉辦的	-11674
著作權	-11675
藝術品	-11676
觀察到	-11677
試試看	-11678
認真的	-11679
變壓器	-11680
走着瞧	-11681
跟大家	-11682
這本書	-11683
這纔是	-11684
通常會	-11685
速度快	-11686
運營商	-11687
部電影	-11688
都不由	-11689
銀行業	-11690
開展了	-11691
阿爾巴	-11692
集團的	-11693
領事館	-11694
黑色的	-11695
Pods	-11696
icon	-11697
onom	-11698
ress	-11699
uper	-11700
▁Kit	-11701
▁接下來	-11702
▁王惕吾	-11703
▁近年來	-11704
▁陳正泰	-11705
一仍舊貫	-11706
上上下下	-11707
不可思議	-11708
人工智慧	-11709
付諸東流	-11710
依然故我	-11711
再生能源	-11712
冷暖自知	-11713
力所不及	-11714
包養價格	-11715
只是一個	-11716
商業模式	-11717
商標註冊	-11718
單人遊戲	-11719
因為他們	-11720
團結一心	-11721
垃圾分類	-11722
壓縮空氣	-11723
尤其是在	-11724
就是一個	-11725
工作效率	-11726
建築風格	-11727
擴充套件	-11728
機械設備	-11729
法人資格	-11730
法律責任	-11731
生產經營	-11732
略知一二	-11733
疫情影響	-11734
直接影響	-11735
研究發現	-11736
確診人數	-11737
總的來看	-11738
衛星通訊	-11739
貫徹落實	-11740
這件事情	-11741
這意味著	-11742
這樣一來	-11743
這樣一個	-11744
還有一些	-11745
還有很多	-11746
阿彌陀佛	-11747
電動汽車	-11748
高度重視	-11749
▁Next	-11750
各式各樣的	-11751
▁there	-11752
下轄以下地區	-11753
是下轄的一個	-11754
第二次世界大戰	-11755
"。	-11756
AY	-11757
EX	-11758
FA	-11759
HD	-11760
MD	-11761
Ni	-11762
OC	-11763
PG	-11764
PL	-11765
PO	-11766
Pl	-11767
SA	-11768
SG	-11769
aw	-11770
du	-11771
▁x	-11772
▁主	-11773
▁今	-11774
▁包	-11775
▁另	-11776
▁吋	-11777
▁坪	-11778
▁宮	-11779
▁帝	-11780
▁手	-11781
▁殺	-11782
▁沙	-11783
▁治	-11784
▁熱	-11785
▁獨	-11786
▁竹	-11787
▁繼	-11788
▁胡	-11789
▁輛	-11790
▁雖	-11791
▁雷	-11792
▁霍	-11793
一亮	-11794
一到	-11795
一往	-11796
一想	-11797
一溜	-11798
一眾	-11799
一組	-11800
一試	-11801
一轉	-11802
一遍	-11803
七八	-11804
七品	-11805
三代	-11806
上也	-11807
上就	-11808
上演	-11809
上週	-11810
下山	-11811
不二	-11812
不失	-11813
不屑	-11814
不惜	-11815
不比	-11816
不等	-11817
不算	-11818
不虛	-11819
不覺	-11820
並有	-11821
中了	-11822
中秋	-11823
丹藥	-11824
主權	-11825
之情	-11826
之輩	-11827
九大	-11828
也大	-11829
也對	-11830
也從	-11831
乳房	-11832
二個	-11833
二戰	-11834
二月	-11835
二致	-11836
五月	-11837
交匯	-11838
交替	-11839
亮點	-11840
人手	-11841
人脈	-11842
人臉	-11843
仇恨	-11844
今世	-11845
介於	-11846
他以	-11847
他被	-11848
仙劍	-11849
仙女	-11850
以內	-11851
以南	-11852
以身	-11853
以高	-11854
任命	-11855
任性	-11856
伊始	-11857
低頻	-11858
何故	-11859
作物	-11860
併發	-11861
使之	-11862
供奉	-11863
依序	-11864
促成	-11865
保密	-11866
保有	-11867
保育	-11868
信譽	-11869
俱全	-11870
倒入	-11871
倘或	-11872
倘諾	-11873
停下	-11874
債權	-11875
傾斜	-11876
僅只	-11877
先在	-11878
先將	-11879
先把	-11880
光電	-11881
克勞	-11882
全勤	-11883
全市	-11884
全是	-11885
八蛋	-11886
公公	-11887
公認	-11888
其在	-11889
兼容	-11890
兼顧	-11891
再三	-11892
再加	-11893
再說	-11894
凝固	-11895
刀具	-11896
分出	-11897
分秒	-11898
分量	-11899
初生	-11900
利息	-11901
利福	-11902
刺史	-11903
則可	-11904
前所	-11905
前途	-11906
剛才	-11907
剝奪	-11908
加拉	-11909
務實	-11910
勞務	-11911
包包	-11912
匆匆	-11913
北北	-11914
北區	-11915
千金	-11916
升值	-11917
卡特	-11918
印證	-11919
友誼	-11920
受益	-11921
口頭	-11922
叫我	-11923
可沒	-11924
各行	-11925
合照	-11926
合資	-11927
吉林	-11928
吉祥	-11929
同佳	-11930
同名	-11931
同安	-11932
同機	-11933
同理	-11934
向的	-11935
否決	-11936
周知	-11937
周遭	-11938
和樂	-11939
和高	-11940
員的	-11941
唐代	-11942
唱歌	-11943
啟發	-11944
喃喃	-11945
喚醒	-11946
單向	-11947
單車	-11948
嘲笑	-11949
噴灑	-11950
嚴肅	-11951
回合	-11952
固有	-11953
國土	-11954
國度	-11955
國慶	-11956
國籍	-11957
地利	-11958
地坪	-11959
地標	-11960
坐鎮	-11961
坡度	-11962
場館	-11963
境況	-11964
士傑	-11965
壯大	-11966
夏日	-11967
夏普	-11968
外媒	-11969
多位	-11970
大作	-11971
大同	-11972
大帝	-11973
大廠	-11974
大獎	-11975
天生	-11976
天諭	-11977
太過	-11978
奇摩	-11979
奮力	-11980
她又	-11981
好在	-11982
好歹	-11983
始起	-11984
委屈	-11985
娘娘	-11986
嫌疑	-11987
嬌生	-11988
孔雀	-11989
字幕	-11990
孜牙	-11991
季後	-11992
孩童	-11993
孫權	-11994
學識	-11995
安然	-11996
定做	-11997
定價	-11998
定居	-11999
宛若	-12000
密閉	-12001
富裕	-12002
寓意	-12003
寧德	-12004
寫下	-12005
寰宇	-12006
封面	-12007
射手	-12008
將她	-12009
將與	-12010
對準	-12011
導電	-12012
小夥	-12013
就以	-12014
就讓	-12015
尼克	-12016
屆時	-12017
履帶	-12018
嶄露	-12019
工況	-12020
已久	-12021
已成	-12022
已然	-12023
巴勒	-12024
巴塞	-12025
巴德	-12026
布拉	-12027
布萊	-12028
帝廷	-12029
帳篷	-12030
常識	-12031
年內	-12032
幻滅	-12033
幽靈	-12034
幾人	-12035
庇護	-12036
廚餘	-12037
廠的	-12038
弘揚	-12039
影子	-12040
待的	-12041
很低	-12042
後天	-12043
後繼	-12044
後門	-12045
從那	-12046
微博	-12047
徵求	-12048
心心	-12049
心意	-12050
快了	-12051
思索	-12052
情侶	-12053
想開	-12054
愛心	-12055
愜意	-12056
感激	-12057
慢性	-12058
憂鬱	-12059
應運	-12060
成形	-12061
我便	-12062
我家	-12063
或然	-12064
或缺	-12065
戰績	-12066
房市	-12067
房產	-12068
所示	-12069
手藝	-12070
手錶	-12071
才華	-12072
打斷	-12073
打架	-12074
把她	-12075
投保	-12076
投手	-12077
抗拒	-12078
抗衡	-12079
拆卸	-12080
拉扯	-12081
拳頭	-12082
拼搏	-12083
指點	-12084
按捺	-12085
挺身	-12086
挽回	-12087
捐款	-12088
捕捉	-12089
排查	-12090
探險	-12091
接手	-12092
接納	-12093
接連	-12094
控管	-12095
換個	-12096
搖動	-12097
搖滾	-12098
搭檔	-12099
摩天	-12100
撞擊	-12101
據點	-12102
收在	-12103
改建	-12104
攻堅	-12105
政事	-12106
政權	-12107
效用	-12108
教徒	-12109
教材	-12110
散去	-12111
散的	-12112
整改	-12113
整片	-12114
整齊	-12115
數碼	-12116
數萬	-12117
斯諾	-12118
新區	-12119
新城	-12120
既定	-12121
日治	-12122
日漸	-12123
日生	-12124
旺季	-12125
昭著	-12126
是她	-12127
時日	-12128
時要	-12129
時隔	-12130
曾為	-12131
會因	-12132
有分	-12133
有據	-12134
朝陽	-12135
未嘗	-12136
村莊	-12137
東亞	-12138
東盟	-12139
東道	-12140
果斷	-12141
格柵	-12142
桂林	-12143
案的	-12144
棄了	-12145
椅上	-12146
模仿	-12147
機和	-12148
此一	-12149
武聖	-12150
死者	-12151
毒性	-12152
毒素	-12153
比喻	-12154
氣血	-12155
氧氣	-12156
水庫	-12157
求助	-12158
江南	-12159
沙灘	-12160
法治	-12161
波羅	-12162
洛斯	-12163
活潑	-12164
流式	-12165
流星	-12166
浩繁	-12167
淇淋	-12168
淵魔	-12169
清算	-12170
減低	-12171
滅絕	-12172
滋滋	-12173
滯留	-12174
滿身	-12175
漏洞	-12176
澤西	-12177
激素	-12178
火災	-12179
火箭	-12180
災害	-12181
為新	-12182
烈的	-12183
無上	-12184
無損	-12185
燃油	-12186
爭辯	-12187
狗狗	-12188
狹窄	-12189
猛地	-12190
率低	-12191
王者	-12192
理當	-12193
琢磨	-12194
瑕疵	-12195
瑪斯	-12196
甜心	-12197
生出	-12198
生土	-12199
生計	-12200
生陳	-12201
用量	-12202
由來	-12203
申辦	-12204
異樣	-12205
當即	-12206
疆場	-12207
疑點	-12208
病患	-12209
療傷	-12210
登山	-12211
發自	-12212
發音	-12213
的就	-12214
的阿	-12215
的陳	-12216
皇室	-12217
皮帶	-12218
盛的	-12219
直觀	-12220
眉峯	-12221
真係	-12222
真切	-12223
着實	-12224
瞳孔	-12225
石塊	-12226
石的	-12227
碳權	-12228
祈禱	-12229
祖父	-12230
祝賀	-12231
神人	-12232
神宗	-12233
神王	-12234
神閣	-12235
禪法	-12236
私家	-12237
科鮑	-12238
稀釋	-12239
稅率	-12240
稍事	-12241
稱作	-12242
空子	-12243
空洞	-12244
穿了	-12245
站立	-12246
第九	-12247
筆試	-12248
簡化	-12249
米爾	-12250
精英	-12251
精進	-12252
精采	-12253
糊塗	-12254
系的	-12255
累累	-12256
細小	-12257
終極	-12258
維度	-12259
網購	-12260
線性	-12261
縣長	-12262
總量	-12263
繁忙	-12264
繪圖	-12265
繳費	-12266
缺席	-12267
美聯	-12268
老王	-12269
者們	-12270
者在	-12271
而定	-12272
耗時	-12273
肆意	-12274
肉的	-12275
肉體	-12276
肥料	-12277
能使	-12278
能將	-12279
臀部	-12280
臣服	-12281
自來	-12282
自願	-12283
臺電	-12284
色澤	-12285
莫得	-12286
菊花	-12287
華文	-12288
葉輪	-12289
蔡薇	-12290
處所	-12291
螺絲	-12292
衝了	-12293
衝消	-12294
表揚	-12295
衹是	-12296
裝甲	-12297
裸露	-12298
西安	-12299
要的	-12300
覈准	-12301
見他	-12302
規畫	-12303
親身	-12304
觀的	-12305
解散	-12306
解鎖	-12307
觸發	-12308
設在	-12309
試用	-12310
語文	-12311
說你	-12312
說起	-12313
誰能	-12314
調配	-12315
談論	-12316
護士	-12317
讓這	-12318
豐滿	-12319
貧困	-12320
貴賓	-12321
買票	-12322
貼上	-12323
賭場	-12324
賽車	-12325
走過	-12326
超出	-12327
超市	-12328
越加	-12329
跑了	-12330
跟腳	-12331
踐行	-12332
身軀	-12333
車程	-12334
輪盤	-12335
輸了	-12336
轉過	-12337
農場	-12338
逃脫	-12339
逍遙	-12340
這件	-12341
這幅	-12342
這等	-12343
這門	-12344
通行	-12345
造就	-12346
運勢	-12347
過半	-12348
適逢	-12349
遲早	-12350
選區	-12351
選秀	-12352
邁進	-12353
那座	-12354
都可	-12355
配上	-12356
配樂	-12357
釀成	-12358
量化	-12359
金仙	-12360
金門	-12361
釣魚	-12362
鍛造	-12363
鎖陽	-12364
長官	-12365
長短	-12366
門外	-12367
門票	-12368
閉關	-12369
閨女	-12370
阻燃	-12371
陛下	-12372
院所	-12373
除去	-12374
陰謀	-12375
陶琳	-12376
雕像	-12377
雙目	-12378
雪茄	-12379
零一	-12380
電廠	-12381
電極	-12382
電臺	-12383
霸氣	-12384
面色	-12385
音訊	-12386
響起	-12387
順勢	-12388
預言	-12389
預設	-12390
預購	-12391
頒獎	-12392
頒發	-12393
領土	-12394
領軍	-12395
額定	-12396
願堅	-12397
願望	-12398
顧慮	-12399
風起	-12400
風電	-12401
食的	-12402
餘力	-12403
駛來	-12404
騷擾	-12405
骨頭	-12406
鬆了	-12407
魔祖	-12408
麵對	-12409
麵的	-12410
麻將	-12411
麻布	-12412
黃昏	-12413
黑客	-12414
黑眼	-12415
黨內	-12416
???	-12417
GDP	-12418
Kat	-12419
ach	-12420
ase	-12421
ays	-12422
cer	-12423
ica	-12424
inc	-12425
led	-12426
leg	-12427
own	-12428
ual	-12429
und	-12430
ura	-12431
”、“	-12432
▁El	-12433
▁IP	-12434
▁Le	-12435
▁ne	-12436
▁。?	-12437
▁上的	-12438
▁世紀	-12439
▁個人	-12440
▁即使	-12441
▁學生	-12442
▁峯會	-12443
▁或許	-12444
▁所謂	-12445
▁於是	-12446
▁既然	-12447
▁日前	-12448
▁正在	-12449
▁沈風	-12450
▁看着	-12451
▁第三	-12452
▁網站	-12453
▁這位	-12454
▁過去	-12455
▁需要	-12456
▁點擊	-12457
一下子	-12458
一句話	-12459
一時間	-12460
上半年	-12461
下一次	-12462
不了了	-12463
不小的	-12464
不符合	-12465
不離十	-12466
並不像	-12467
並要求	-12468
並針對	-12469
中全會	-12470
中含有	-12471
中國和	-12472
中研院	-12473
之一是	-12474
也必須	-12475
也跟著	-12476
了一次	-12477
了下去	-12478
人影兒	-12479
他人的	-12480
企業和	-12481
你說的	-12482
使我們	-12483
充電站	-12484
內蒙古	-12485
公交車	-12486
公司在	-12487
則表示	-12488
副主席	-12489
副市長	-12490
包裝袋	-12491
十九屆	-12492
參加者	-12493
受害者	-12494
和工作	-12495
問題是	-12496
因為這	-12497
國內的	-12498
國家和	-12499
國際上	-12500
在今年	-12501
在他們	-12502
在公司	-12503
在印度	-12504
在臺北	-12505
在英國	-12506
地方的	-12507
城市的	-12508
多餘的	-12509
大團結	-12510
大家的	-12511
她倆的	-12512
她們的	-12513
如下圖	-12514
孜牙墩	-12515
宋雲峯	-12516
已成為	-12517
平臺上	-12518
底下的	-12519
弗蘭朵	-12520
快速的	-12521
想辦法	-12522
成立了	-12523
打造的	-12524
接壤的	-12525
提到的	-12526
改變了	-12527
是一本	-12528
是需要	-12529
時間為	-12530
會選擇	-12531
有一名	-12532
有一番	-12533
有人在	-12534
本人的	-12535
東北部	-12536
正面的	-12537
此起彼	-12538
比較多	-12539
比較高	-12540
污染物	-12541
決定了	-12542
沒辦法	-12543
河北省	-12544
減速機	-12545
準備好	-12546
滿意度	-12547
為香港	-12548
無人機	-12549
玻璃鋼	-12550
瑞龍寺	-12551
甚至還	-12552
發表的	-12553
的一面	-12554
的可能	-12555
的合約	-12556
的因素	-12557
的天氣	-12558
的建議	-12559
的心情	-12560
的情緒	-12561
的政治	-12562
的時光	-12563
的業務	-12564
的氣氛	-12565
的焦點	-12566
的表情	-12567
的話語	-12568
的關注	-12569
社會中	-12570
程式碼	-12571
管理的	-12572
精彩的	-12573
系列的	-12574
紀錄片	-12575
經濟學	-12576
緊接著	-12577
纔可以	-12578
纔能夠	-12579
羽毛球	-12580
老太太	-12581
而且還	-12582
而成的	-12583
而這些	-12584
耐高溫	-12585
職人員	-12586
肯定會	-12587
自己在	-12588
與美國	-12589
與臺灣	-12590
菩提心	-12591
蕭順水	-12592
薩科鮑	-12593
處理的	-12594
行業內	-12595
裴洛西	-12596
西南部	-12597
要怎麼	-12598
設計與	-12599
說明書	-12600
說的是	-12601
談得來	-12602
變得更	-12603
購買的	-12604
超過了	-12605
身份證	-12606
較好的	-12607
辦不到	-12608
這一個	-12609
遇到的	-12610
運行的	-12611
過來了	-12612
過去了	-12613
還不夠	-12614
邊條翼	-12615
那裡的	-12616
那麼多	-12617
部分是	-12618
都不是	-12619
都是由	-12620
都知道	-12621
銷售量	-12622
降雨量	-12623
陳同佳	-12624
電磁閥	-12625
電腦的	-12626
需求的	-12627
非物質	-12628
韓國瑜	-12629
類似的	-12630
馬英九	-12631
黑龍江	-12632
黨組織	-12633
BIOS	-12634
Word	-12635
ange	-12636
atch	-12637
▁BBC	-12638
▁con	-12639
▁事實上	-12640
▁如果您	-12641
▁就在這	-12642
▁陳丹朱	-12643
一乾二淨	-12644
一帶一路	-12645
也是如此	-12646
也決不會	-12647
了一口氣	-12648
位於中國	-12649
做的事情	-12650
健康管理	-12651
公共衛生	-12652
共有人口	-12653
冰消瓦解	-12654
反之亦然	-12655
回過神來	-12656
外交關係	-12657
完全沒有	-12658
客戶提供	-12659
居家隔離	-12660
從來沒有	-12661
從未結婚	-12662
心明如鏡	-12663
怎麼可能	-12664
所以我們	-12665
所帶來的	-12666
授權轉載	-12667
提供服務	-12668
換句話說	-12669
日本政府	-12670
日行跡塔	-12671
時代力量	-12672
有很大的	-12673
有限責任	-12674
服務中心	-12675
毫無二致	-12676
氣候變遷	-12677
污水處理	-12678
波特萊爾	-12679
煙雲過眼	-12680
特別是在	-12681
生產工藝	-12682
產業發展	-12683
百年之後	-12684
管理系統	-12685
脫穎而出	-12686
萬平方米	-12687
認知模組	-12688
身心障礙	-12689
金融服務	-12690
電動機車	-12691
電話號碼	-12692
非常重要	-12693
高速公路	-12694
點了頷首	-12695
▁from	-12696
▁have	-12697
▁over	-12698
八九不離十	-12699
日常生活中	-12700
是位於美國	-12701
石庫門建築	-12702
而人口密度	-12703
航空公司的	-12704
遴選委員會	-12705
電視劇版由	-12706
為每平方千米	-12707
當地共有人口	-12708
人口普查的資料	-12709
誇大自體症候羣	-12710
▁AirPods	-12711
年夏季奧林匹克運動會	-12712
年美國人口普查的資料	-12713
而人口密度為每平方千米	-12714
.,	-12715
Ar	-12716
CT	-12717
DA	-12718
DC	-12719
FF	-12720
LE	-12721
NO	-12722
RA	-12723
Tr	-12724
UI	-12725
VC	-12726
WS	-12727
ny	-12728
ui	-12729
▁^	-12730
▁j	-12731
▁任	-12732
▁伊	-12733
▁十	-12734
▁向	-12735
▁哈	-12736
▁喬	-12737
▁坐	-12738
▁姜	-12739
▁字	-12740
▁孟	-12741
▁屬	-12742
▁崔	-12743
▁柳	-12744
▁歐	-12745
▁火	-12746
▁言	-12747
▁貝	-12748
▁進	-12749
▁面	-12750
▁飛	-12751
一晚	-12752
一望	-12753
一氣	-12754
一班	-12755
一發	-12756
一瞬	-12757
一級	-12758
一躍	-12759
七十	-12760
三國	-12761
三重	-12762
上游	-12763
上頭	-12764
下令	-12765
下個	-12766
下沉	-12767
不來	-12768
不完	-12769
不為	-12770
不理	-12771
不看	-12772
不順	-12773
世上	-12774
中對	-12775
中性	-12776
中段	-12777
中等	-12778
中說	-12779
中都	-12780
串流	-12781
丹麥	-12782
之分	-12783
之大	-12784
之尊	-12785
之手	-12786
乙方	-12787
了呢	-12788
了好	-12789
了眼	-12790
事態	-12791
事關	-12792
二百	-12793
二的	-12794
互聯	-12795
五世	-12796
五行	-12797
交代	-12798
交出	-12799
亦會	-12800
京都	-12801
亮起	-12802
亮麗	-12803
人所	-12804
人會	-12805
人皇	-12806
他了	-12807
代代	-12808
代言	-12809
令他	-12810
任期	-12811
伎倆	-12812
休假	-12813
估量	-12814
但又	-12815
但若	-12816
但須	-12817
位數	-12818
何時	-12819
來回	-12820
信託	-12821
個大	-12822
倏忽	-12823
倏然	-12824
假裝	-12825
偏遠	-12826
傳到	-12827
傾聽	-12828
僅在	-12829
僕人	-12830
儀的	-12831
儘量	-12832
元旦	-12833
充沛	-12834
光輝	-12835
入學	-12836
內衣	-12837
全的	-12838
兩家	-12839
兩道	-12840
兩隊	-12841
八大	-12842
公元	-12843
公式	-12844
公文	-12845
六大	-12846
共謀	-12847
兵器	-12848
兵團	-12849
典範	-12850
典雅	-12851
兼備	-12852
冉冉	-12853
再轉	-12854
冰冰	-12855
冷庫	-12856
冷藏	-12857
冷靜	-12858
凌霄	-12859
出擊	-12860
出敵	-12861
出示	-12862
分歧	-12863
分行	-12864
利浦	-12865
則在	-12866
剎車	-12867
創傷	-12868
劇的	-12869
力道	-12870
加壓	-12871
加班	-12872
勃勃	-12873
動盪	-12874
化解	-12875
千古	-12876
半夜	-12877
半點	-12878
協辦	-12879
博拉	-12880
博覽	-12881
卡車	-12882
即為	-12883
去過	-12884
參展	-12885
反復	-12886
口吻	-12887
口徑	-12888
召喚	-12889
可否	-12890
可得	-12891
可為	-12892
可調	-12893
史蒂	-12894
各家	-12895
同聲	-12896
同船	-12897
名特	-12898
名錄	-12899
向陽	-12900
吩咐	-12901
吸取	-12902
命中	-12903
和中	-12904
和王	-12905
哎喲	-12906
商酌	-12907
喀什	-12908
喜劇	-12909
喫過	-12910
單字	-12911
單季	-12912
嚴苛	-12913
四千	-12914
四名	-12915
四季	-12916
四成	-12917
回升	-12918
國君	-12919
國手	-12920
國道	-12921
團員	-12922
在山	-12923
在明	-12924
基妍	-12925
堅信	-12926
堅果	-12927
塞爾	-12928
外邊	-12929
多見	-12930
夢境	-12931
大中	-12932
大乘	-12933
大勢	-12934
大廳	-12935
大洲	-12936
大片	-12937
大雄	-12938
大風	-12939
天驕	-12940
天龍	-12941
太遠	-12942
央行	-12943
失能	-12944
奪冠	-12945
奪得	-12946
如月	-12947
始末	-12948
威力	-12949
威壓	-12950
威爾	-12951
子和	-12952
存活	-12953
孫子	-12954
學姐	-12955
安好	-12956
安居	-12957
安置	-12958
宋楚	-12959
官職	-12960
定點	-12961
家莊	-12962
容積	-12963
密斯	-12964
實木	-12965
實物	-12966
寧靜	-12967
專人	-12968
專科	-12969
對戰	-12970
對焦	-12971
導航	-12972
小菁	-12973
尼爾	-12974
居多	-12975
屏障	-12976
展會	-12977
屢次	-12978
層層	-12979
崛起	-12980
嶽風	-12981
州城	-12982
州長	-12983
工件	-12984
工地	-12985
左邊	-12986
巴伐	-12987
師姐	-12988
師資	-12989
帶了	-12990
帶你	-12991
常住	-12992
平原	-12993
平易	-12994
年頭	-12995
幻姬	-12996
幼稚	-12997
底氣	-12998
店面	-12999
度與	-13000
延後	-13001
弟兄	-13002
弧形	-13003
往復	-13004
很小	-13005
得上	-13006
得主	-13007
得天	-13008
得太	-13009
得益	-13010
徙置	-13011
從高	-13012
徵收	-13013
德塞	-13014
心動	-13015
忠實	-13016
息型	-13017
息息	-13018
悠久	-13019
患有	-13020
悲慘	-13021
情景	-13022
想讓	-13023
愈益	-13024
意象	-13025
應力	-13026
懸掛	-13027
戰敗	-13028
戲院	-13029
房的	-13030
所向	-13031
所長	-13032
手冊	-13033
手腕	-13034
才被	-13035
扎實	-13036
打上	-13037
打着	-13038
打響	-13039
扣除	-13040
扭轉	-13041
扶植	-13042
找還	-13043
承襲	-13044
投機	-13045
投產	-13046
抗爭	-13047
抽屜	-13048
拇指	-13049
拉拉	-13050
招牌	-13051
捉摸	-13052
探尋	-13053
推理	-13054
推遲	-13055
插槽	-13056
揚塵	-13057
換乘	-13058
搬遷	-13059
搶佔	-13060
摧殘	-13061
摩根	-13062
撫養	-13063
擁抱	-13064
擔負	-13065
擠壓	-13066
攝氏	-13067
支流	-13068
收視	-13069
改名	-13070
攻城	-13071
政務	-13072
政協	-13073
故曰	-13074
整座	-13075
整數	-13076
數個	-13077
文秀	-13078
料的	-13079
斯和	-13080
新建	-13081
新羅	-13082
方纔	-13083
方言	-13084
旁觀	-13085
旋即	-13086
明日	-13087
明頓	-13088
易於	-13089
星球	-13090
春天	-13091
是讓	-13092
昱霖	-13093
時所	-13094
時說	-13095
晃動	-13096
景灣	-13097
智庫	-13098
書院	-13099
曹操	-13100
曹爽	-13101
曾於	-13102
會所	-13103
月初	-13104
月球	-13105
月至	-13106
有天	-13107
有幾	-13108
有更	-13109
有毒	-13110
有着	-13111
服的	-13112
期許	-13113
本座	-13114
本該	-13115
本錢	-13116
本體	-13117
李強	-13118
東協	-13119
板式	-13120
林的	-13121
果實	-13122
某某	-13123
某甲	-13124
某部	-13125
查找	-13126
查證	-13127
查閱	-13128
格倫	-13129
桌子	-13130
機型	-13131
權勢	-13132
權限	-13133
次第	-13134
歌詞	-13135
正向	-13136
正經	-13137
步入	-13138
歷任	-13139
氨基	-13140
水壩	-13141
江辰	-13142
沉沉	-13143
沉聲	-13144
沖洗	-13145
治安	-13146
沿途	-13147
法第	-13148
洗滌	-13149
洛陽	-13150
津液	-13151
派的	-13152
浩瀚	-13153
浪潮	-13154
淪為	-13155
混身	-13156
清新	-13157
渦輪	-13158
準許	-13159
漁業	-13160
演技	-13161
漢字	-13162
漢語	-13163
潮濕	-13164
澀谷	-13165
激起	-13166
濃厚	-13167
濃濃	-13168
濫用	-13169
火候	-13170
火力	-13171
火頭	-13172
炎熱	-13173
無名	-13174
無垠	-13175
無忌	-13176
無止	-13177
無言	-13178
燃氣	-13179
營生	-13180
爆紅	-13181
父子	-13182
牙周	-13183
牛仔	-13184
犀利	-13185
狀的	-13186
王位	-13187
現存	-13188
球場	-13189
理應	-13190
琉球	-13191
產出	-13192
用做	-13193
用地	-13194
用家	-13195
用藥	-13196
甲醛	-13197
畫卷	-13198
異議	-13199
當家	-13200
當心	-13201
當的	-13202
當真	-13203
病的	-13204
療法	-13205
百威	-13206
的也	-13207
的劍	-13208
的歌	-13209
的油	-13210
的總	-13211
的耐	-13212
的腦	-13213
的過	-13214
的錢	-13215
皮夾	-13216
盡情	-13217
目共	-13218
目睹	-13219
直線	-13220
直言	-13221
盼望	-13222
省委	-13223
眉高	-13224
眷顧	-13225
眼低	-13226
着重	-13227
知足	-13228
短信	-13229
短的	-13230
破天	-13231
破費	-13232
硬的	-13233
碾壓	-13234
祕魯	-13235
祖先	-13236
神明	-13237
票價	-13238
禪宗	-13239
禪師	-13240
秋冬	-13241
科目	-13242
窺見	-13243
等他	-13244
等位	-13245
篩檢	-13246
簽名	-13247
糾正	-13248
純度	-13249
細分	-13250
結界	-13251
絕非	-13252
給付	-13253
綁定	-13254
綠化	-13255
綠能	-13256
緣何	-13257
編曲	-13258
總局	-13259
總歸	-13260
總能	-13261
總額	-13262
罐中	-13263
美式	-13264
美景	-13265
美白	-13266
美金	-13267
義偉	-13268
翠微	-13269
翱翔	-13270
而其	-13271
而復	-13272
而知	-13273
聯袂	-13274
聲波	-13275
聽聽	-13276
能把	-13277
能更	-13278
能見	-13279
腎臟	-13280
腐朽	-13281
膠原	-13282
臉孔	-13283
自有	-13284
自覺	-13285
舉的	-13286
舉重	-13287
舊的	-13288
良心	-13289
花錢	-13290
荀子	-13291
草湳	-13292
華僑	-13293
華夏	-13294
萬方	-13295
萬餘	-13296
蒸汽	-13297
藍牙	-13298
藏在	-13299
螺釘	-13300
血案	-13301
行事	-13302
行列	-13303
表決	-13304
衰老	-13305
補習	-13306
裡也	-13307
裡外	-13308
製藥	-13309
複合	-13310
西蘭	-13311
西裝	-13312
要以	-13313
要和	-13314
見慣	-13315
規矩	-13316
觸及	-13317
觸感	-13318
評鑑	-13319
試樣	-13320
誘惑	-13321
調理	-13322
談談	-13323
諸佛	-13324
講座	-13325
警惕	-13326
警戒	-13327
議長	-13328
變色	-13329
谷歌	-13330
買了	-13331
賦能	-13332
賺取	-13333
走路	-13334
起飛	-13335
趁熱	-13336
趕上	-13337
跑到	-13338
跟她	-13339
路面	-13340
軍旅	-13341
軟弱	-13342
較著	-13343
輕薄	-13344
輪廓	-13345
輪椅	-13346
輪的	-13347
轉送	-13348
近代	-13349
迪克	-13350
迴圈	-13351
退役	-13352
送去	-13353
這可	-13354
這批	-13355
這番	-13356
這股	-13357
通膨	-13358
通通	-13359
連帶	-13360
週四	-13361
進三	-13362
進修	-13363
進到	-13364
進士	-13365
逼迫	-13366
遇見	-13367
遊覽	-13368
過高	-13369
遜色	-13370
遠傳	-13371
遠比	-13372
適量	-13373
遮擋	-13374
遲鈍	-13375
遵照	-13376
選民	-13377
遺老	-13378
遼闊	-13379
邁向	-13380
還多	-13381
還想	-13382
部會	-13383
都以	-13384
酸性	-13385
醒來	-13386
醞釀	-13387
醫治	-13388
重來	-13389
野外	-13390
金牌	-13391
銅牌	-13392
錄像	-13393
鍋中	-13394
鍛鍊	-13395
鎮壓	-13396
鐵道	-13397
長出	-13398
長年	-13399
長春	-13400
門徒	-13401
門戶	-13402
閃動	-13403
閃現	-13404
閃電	-13405
開銷	-13406
開闊	-13407
間斷	-13408
閣主	-13409
闖入	-13410
防盜	-13411
附屬	-13412
降臨	-13413
陣列	-13414
陸州	-13415
陽關	-13416
階梯	-13417
隔天	-13418
隨口	-13419
雙向	-13420
雙重	-13421
難處	-13422
雷池	-13423
震盪	-13424
靈卿	-13425
靈通	-13426
青蓮	-13427
面子	-13428
音頻	-13429
頒布	-13430
領主	-13431
頭頂	-13432
額頭	-13433
類乎	-13434
飛出	-13435
飛去	-13436
首選	-13437
香水	-13438
驚艷	-13439
骨肉	-13440
體例	-13441
高了	-13442
高聲	-13443
高鐵	-13444
鬚眉	-13445
魔術	-13446
黃花	-13447
點點	-13448
黨籍	-13449
鼓舞	-13450
IBM	-13451
ISA	-13452
Pro	-13453
Tok	-13454
aid	-13455
ari	-13456
arm	-13457
arr	-13458
ats	-13459
enc	-13460
ins	-13461
ipt	-13462
net	-13463
omm	-13464
ury	-13465
▁Di	-13466
▁On	-13467
▁en	-13468
▁im	-13469
▁my	-13470
▁se	-13471
▁tr	-13472
▁並且	-13473
▁中央	-13474
▁什麼	-13475
▁企業	-13476
▁來自	-13477
▁包括	-13478
▁合作	-13479
▁報導	-13480
▁孟川	-13481
▁年起	-13482
▁想要	-13483
▁我的	-13484
▁晶片	-13485
▁月份	-13486
▁為何	-13487
▁王騰	-13488
▁而是	-13489
▁英國	-13490
▁蘇銳	-13491
▁購買	-13492
▁進入	-13493
▁遊戲	-13494
▁那是	-13495
▁面對	-13496
一個個	-13497
一天的	-13498
一定是	-13499
一度人	-13500
一族的	-13501
一起去	-13502
下一場	-13503
不再是	-13504
不喜歡	-13505
不由己	-13506
不見了	-13507
不遠處	-13508
世代的	-13509
並使用	-13510
主辦的	-13511
之類的	-13512
也不要	-13513
也許是	-13514
了一口	-13515
了不少	-13516
二十大	-13517
二維碼	-13518
人們對	-13519
人士的	-13520
仍然是	-13521
他也是	-13522
他的人	-13523
代表作	-13524
代表團	-13525
件事情	-13526
你們的	-13527
你覺得	-13528
使不得	-13529
使用了	-13530
做的事	-13531
僅次於	-13532
充電器	-13533
先生的	-13534
公佈了	-13535
公佈的	-13536
其他人	-13537
切割機	-13538
到其他	-13539
前面的	-13540
創造出	-13541
力所能	-13542
功能性	-13543
加利福	-13544
包括了	-13545
半決賽	-13546
即便是	-13547
參與的	-13548
另一半	-13549
可以更	-13550
可用於	-13551
和和氣	-13552
和發展	-13553
商品的	-13554
在世界	-13555
在北京	-13556
在我們	-13557
在此刻	-13558
在進行	-13559
埃博拉	-13560
失業率	-13561
如果在	-13562
姆斯特	-13563
季後賽	-13564
學院的	-13565
宋楚瑜	-13566
實在太	-13567
將自己	-13568
專賣店	-13569
對這些	-13570
小乾坤	-13571
就不是	-13572
就好像	-13573
就直接	-13574
就能夠	-13575
州刺史	-13576
巴釐島	-13577
市長黃	-13578
年代的	-13579
年以來	-13580
廢棄物	-13581
建立在	-13582
很快就	-13583
徹斯特	-13584
怎麼會	-13585
性能的	-13586
患者的	-13587
慢慢的	-13588
憲兵隊	-13589
應用的	-13590
成長率	-13591
我不會	-13592
我希望	-13593
所以他	-13594
折不扣	-13595
指揮官	-13596
排放量	-13597
效率高	-13598
整個人	-13599
數據庫	-13600
文化和	-13601
斯拉夫	-13602
斯諾登	-13603
新華社	-13604
方位的	-13605
方方面	-13606
日開始	-13607
明確的	-13608
是一度	-13609
是他們	-13610
是企業	-13611
是屬於	-13612
是法國	-13613
是真的	-13614
普通的	-13615
最快的	-13616
有一座	-13617
有一段	-13618
有兩種	-13619
有力的	-13620
有用的	-13621
有非常	-13622
機構的	-13623
殘疾人	-13624
毛利率	-13625
水資源	-13626
沒有了	-13627
游泳池	-13628
為中心	-13629
為目標	-13630
為社會	-13631
熟悉的	-13632
特點是	-13633
王八蛋	-13634
王願堅	-13635
當事人	-13636
發動機	-13637
的一天	-13638
的一幕	-13639
的主體	-13640
的事項	-13641
的人羣	-13642
的原則	-13643
的山峯	-13644
的心態	-13645
的快速	-13646
的新型	-13647
的時段	-13648
的樂趣	-13649
的氣味	-13650
的照片	-13651
的玩家	-13652
的組織	-13653
的網路	-13654
的能量	-13655
的觀點	-13656
的身上	-13657
的道理	-13658
的都是	-13659
省道臺	-13660
看著她	-13661
眼前的	-13662
眼底下	-13663
短期內	-13664
研究員	-13665
空間的	-13666
竟然是	-13667
第一名	-13668
第一天	-13669
第十六	-13670
等情況	-13671
等服務	-13672
管理員	-13673
節目的	-13674
精度的	-13675
結束了	-13676
給自己	-13677
經濟體	-13678
經銷商	-13679
縣政府	-13680
繼承人	-13681
肯定的	-13682
背景下	-13683
臉上的	-13684
自己是	-13685
自由的	-13686
航空業	-13687
菅義偉	-13688
葛洛斯	-13689
蕩然無	-13690
血戰士	-13691
視網膜	-13692
譚德塞	-13693
讓學生	-13694
讓觀眾	-13695
走到了	-13696
輕輕地	-13697
近距離	-13698
這兩種	-13699
進去的	-13700
選擇的	-13701
郭美美	-13702
都不敢	-13703
鋼結構	-13704
長可達	-13705
開始了	-13706
陳昱霖	-13707
際網路	-13708
雲南省	-13709
顏靈卿	-13710
顯示器	-13711
首先是	-13712
體現了	-13713
體現在	-13714
高強度	-13715
黨支部	-13716
edia	-13717
iPad	-13718
irst	-13719
lock	-13720
roup	-13721
▁Con	-13722
▁Inc	-13723
▁can	-13724
▁was	-13725
▁婁小乙	-13726
▁實際上	-13727
▁王寶樂	-13728
▁這時候	-13729
▁這會兒	-13730
不可或缺	-13731
不是一個	-13732
不用擔心	-13733
不知不覺	-13734
了一系列	-13735
但實際上	-13736
作為一種	-13737
依然如故	-13738
便利商店	-13739
個百分點	-13740
其中男性	-13741
冷哼一聲	-13742
力所能及	-13743
另外一個	-13744
可不可以	-13745
同比增長	-13746
哥倫比亞	-13747
商業銀行	-13748
單身人士	-13749
國際機場	-13750
塔爾隆德	-13751
姆斯特丹	-13752
將自己的	-13753
專業知識	-13754
對自己的	-13755
就是這樣	-13756
工作負載	-13757
已婚人士	-13758
巴伐利亞	-13759
幾乎沒有	-13760
成千上萬	-13761
接下來的	-13762
是我們的	-13763
是最好的	-13764
未來發展	-13765
核酸檢測	-13766
歸根到底	-13767
為了避免	-13768
為您提供	-13769
無與倫比	-13770
登場人物	-13771
的第一個	-13772
的變身者	-13773
目前為止	-13774
眉高眼低	-13775
科技公司	-13776
競爭對手	-13777
行政單位	-13778
農曆新年	-13779
這個計劃	-13780
還有一個	-13781
醫療機構	-13782
非同兒戲	-13783
食品安全	-13784
▁iPad	-13785
▁發布時間	-13786
人口密度每	-13787
加利福尼亞	-13788
委員會主席	-13789
的使用壽命	-13790
石庫門裡弄	-13791
阿爾巴尼亞	-13792
▁about	-13793
Twitter	-13794
▁......	-13795
▁KitKat	-13796
非物質文化遺產	-13797
▁ReadyGo	-13798
▁politics	-13799
人口密度每平方公里	-13800
BE	-13801
DS	-13802
EA	-13803
NP	-13804
OL	-13805
PM	-13806
Pt	-13807
SM	-13808
Su	-13809
TM	-13810
bi	-13811
ge	-13812
km	-13813
ni	-13814
oy	-13815
▁@	-13816
▁僅	-13817
▁加	-13818
▁卻	-13819
▁原	-13820
▁合	-13821
▁已	-13822
▁待	-13823
▁故	-13824
▁清	-13825
▁滿	-13826
▁現	-13827
▁發	-13828
▁範	-13829
▁艾	-13830
▁蒼	-13831
、,	-13832
。,	-13833
一圈	-13834
一壘	-13835
一滴	-13836
一驚	-13837
七月	-13838
三倍	-13839
三夜	-13840
三是	-13841
三條	-13842
三的	-13843
三相	-13844
三等	-13845
三間	-13846
上調	-13847
上馬	-13848
下水	-13849
下落	-13850
不入	-13851
不分	-13852
不平	-13853
不正	-13854
不無	-13855
不盡	-13856
不至	-13857
不言	-13858
不透	-13859
並對	-13860
中下	-13861
中東	-13862
中標	-13863
中生	-13864
主播	-13865
之光	-13866
之國	-13867
之城	-13868
之多	-13869
之說	-13870
之門	-13871
之風	-13872
乎乎	-13873
乘法	-13874
乘車	-13875
九重	-13876
也應	-13877
也更	-13878
也正	-13879
了了	-13880
二級	-13881
云何	-13882
五成	-13883
些年	-13884
亞目	-13885
亟需	-13886
交道	-13887
人情	-13888
人要	-13889
人馬	-13890
他想	-13891
仙界	-13892
以是	-13893
仰賴	-13894
休旅	-13895
伯特	-13896
伸展	-13897
但其	-13898
但因	-13899
但它	-13900
位居	-13901
位移	-13902
低下	-13903
何嘗	-13904
佛門	-13905
作聲	-13906
佳績	-13907
使徒	-13908
來者	-13909
來電	-13910
供熱	-13911
供養	-13912
侵害	-13913
便當	-13914
係數	-13915
修為	-13916
修護	-13917
們都	-13918
倒了	-13919
倒閉	-13920
倘使	-13921
偏移	-13922
做過	-13923
停機	-13924
停滯	-13925
停課	-13926
側的	-13927
傳道	-13928
傾城	-13929
僧人	-13930
儲備	-13931
充斥	-13932
充棟	-13933
先來	-13934
光圈	-13935
光纜	-13936
光顧	-13937
兒女	-13938
入夥	-13939
內置	-13940
兩千	-13941
兩百	-13942
公報	-13943
公立	-13944
六成	-13945
其所	-13946
冒出	-13947
冰冷	-13948
出事	-13949
出格	-13950
出水	-13951
出頭	-13952
分身	-13953
切削	-13954
刑警	-13955
列位	-13956
列出	-13957
初露	-13958
別無	-13959
到我	-13960
刺客	-13961
劃分	-13962
功倍	-13963
加劇	-13964
助長	-13965
劫難	-13966
勃興	-13967
勒勒	-13968
勾起	-13969
化為	-13970
北的	-13971
北辰	-13972
匯報	-13973
升息	-13974
南寧	-13975
即位	-13976
卻在	-13977
厭惡	-13978
參謀	-13979
又以	-13980
又在	-13981
反思	-13982
反擊	-13983
反猶	-13984
叛亂	-13985
古蹟	-13986
可想	-13987
可控	-13988
合一	-13989
合器	-13990
合用	-13991
吉斯	-13992
同胞	-13993
同臺	-13994
名號	-13995
君子	-13996
吸納	-13997
呆呆	-13998
告密	-13999
呼應	-14000
和李	-14001
和白	-14002
和非	-14003
咧嘴	-14004
咬牙	-14005
哥兒	-14006
唏噓	-14007
唯諾	-14008
商兌	-14009
商貿	-14010
問到	-14011
喝水	-14012
單層	-14013
單次	-14014
喻戶	-14015
嘀咕	-14016
嚴厲	-14017
四郊	-14018
四門	-14019
回落	-14020
回首	-14021
因緣	-14022
固路	-14023
國公	-14024
國旗	-14025
國色	-14026
圖示	-14027
在想	-14028
在意	-14029
在有	-14030
在被	-14031
地平	-14032
地處	-14033
坦克	-14034
坦言	-14035
坦途	-14036
執業	-14037
基底	-14038
塗鴉	-14039
塵埃	-14040
增壓	-14041
增效	-14042
增設	-14043
墨色	-14044
墻面	-14045
壞的	-14046
外包	-14047
外套	-14048
外送	-14049
多倫	-14050
多款	-14051
多達	-14052
夜玄	-14053
大抵	-14054
大爲	-14055
大腿	-14056
天上	-14057
天人	-14058
天冊	-14059
天劍	-14060
天惠	-14061
天才	-14062
天機	-14063
天賜	-14064
太小	-14065
奇特	-14066
奉爲	-14067
奪取	-14068
女皇	-14069
她也	-14070
好些	-14071
好壞	-14072
好比	-14073
好玩	-14074
好看	-14075
如初	-14076
如期	-14077
妖魔	-14078
姬天	-14079
威夷	-14080
娓娓	-14081
婆家	-14082
子弟	-14083
字母	-14084
字號	-14085
孫女	-14086
安詳	-14087
完後	-14088
定理	-14089
宴會	-14090
家園	-14091
家用	-14092
宿主	-14093
富含	-14094
實事	-14095
實幹	-14096
寶殿	-14097
寶物	-14098
寶貴	-14099
尊敬	-14100
對稱	-14101
對這	-14102
小一	-14103
小巷	-14104
小腸	-14105
小龍	-14106
少主	-14107
少於	-14108
尖叫	-14109
就看	-14110
就職	-14111
就跟	-14112
尼龍	-14113
屏風	-14114
山峯	-14115
嵐府	-14116
巴掌	-14117
布林	-14118
師範	-14119
帶上	-14120
常在	-14121
平復	-14122
平日	-14123
平米	-14124
平素	-14125
平行	-14126
年中	-14127
年改	-14128
年由	-14129
幹預	-14130
幽默	-14131
序幕	-14132
府中	-14133
府主	-14134
廉潔	-14135
建國	-14136
弦外	-14137
強壯	-14138
形似	-14139
彩印	-14140
往外	-14141
往年	-14142
後勤	-14143
後有	-14144
後背	-14145
後退	-14146
得意	-14147
從業	-14148
復活	-14149
復蘇	-14150
心底	-14151
心悅	-14152
心甘	-14153
心眼	-14154
心聲	-14155
忠誠	-14156
快感	-14157
急救	-14158
急著	-14159
恆濕	-14160
恭敬	-14161
悲傷	-14162
悲劇	-14163
悲觀	-14164
惋惜	-14165
惡魔	-14166
愛你	-14167
愛洛	-14168
感官	-14169
慕容	-14170
慶典	-14171
應是	-14172
成一	-14173
戰勝	-14174
戰時	-14175
房租	-14176
手下	-14177
手套	-14178
手持	-14179
手握	-14180
才剛	-14181
打好	-14182
承載	-14183
抄襲	-14184
抱持	-14185
抽出	-14186
拉多	-14187
拉著	-14188
拓寬	-14189
按下	-14190
按時	-14191
挑逗	-14192
捕獲	-14193
掃過	-14194
掌心	-14195
掛在	-14196
接任	-14197
掩蓋	-14198
提告	-14199
提案	-14200
換上	-14201
換了	-14202
換取	-14203
換熱	-14204
揭開	-14205
摔角	-14206
摧毀	-14207
擦拭	-14208
擺動	-14209
收件	-14210
改經	-14211
放緩	-14212
放過	-14213
政工	-14214
故仔	-14215
敏捷	-14216
教你	-14217
敬業	-14218
敵方	-14219
文憑	-14220
文本	-14221
新店	-14222
斷了	-14223
斷然	-14224
施肥	-14225
旋踵	-14226
日日	-14227
昂貴	-14228
星級	-14229
是中	-14230
是會	-14231
是能	-14232
是自	-14233
是這	-14234
時裝	-14235
智力	-14236
暖化	-14237
暴風	-14238
更佳	-14239
更甚	-14240
曾是	-14241
替換	-14242
最優	-14243
會考	-14244
會試	-14245
會說	-14246
月薪	-14247
有二	-14248
有名	-14249
服役	-14250
期刊	-14251
朦朧	-14252
木頭	-14253
未婚	-14254
末段	-14255
本原	-14256
本部	-14257
李靖	-14258
東錦	-14259
林辰	-14260
查宅	-14261
校正	-14262
條文	-14263
植被	-14264
業態	-14265
極力	-14266
極少	-14267
槓桿	-14268
樣板	-14269
檢舉	-14270
檳城	-14271
欄桿	-14272
款項	-14273
歐式	-14274
歡笑	-14275
此種	-14276
步的	-14277
歷來	-14278
死去	-14279
段落	-14280
殺意	-14281
毀掉	-14282
毒的	-14283
毛孔	-14284
民命	-14285
民用	-14286
氣色	-14287
水位	-14288
江之	-14289
池中	-14290
沉重	-14291
沖壓	-14292
沙田	-14293
河道	-14294
沿線	-14295
泛泛	-14296
泯沒	-14297
洗禮	-14298
活了	-14299
活塞	-14300
活得	-14301
流浪	-14302
流轉	-14303
流露	-14304
淡化	-14305
淨零	-14306
深夜	-14307
深奧	-14308
深耕	-14309
混蛋	-14310
清涼	-14311
渙然	-14312
源源	-14313
源的	-14314
滑鼠	-14315
滾滾	-14316
演練	-14317
漫天	-14318
漫長	-14319
澄清	-14320
激情	-14321
濾袋	-14322
濾鏡	-14323
瀟灑	-14324
火花	-14325
炸開	-14326
為天	-14327
為首	-14328
無前	-14329
無情	-14330
無機	-14331
無畏	-14332
無知	-14333
無能	-14334
無視	-14335
煤礦	-14336
熱度	-14337
熱心	-14338
燦爛	-14339
爾瓦	-14340
牌子	-14341
牟尼	-14342
特展	-14343
特效	-14344
特異	-14345
狂暴	-14346
狂的	-14347
猛的	-14348
獲悉	-14349
王令	-14350
王府	-14351
現鈔	-14352
瑜伽	-14353
瓦魯	-14354
瓷磚	-14355
甘肅	-14356
生子	-14357
生機	-14358
生肖	-14359
產地	-14360
用到	-14361
用錢	-14362
甲級	-14363
男友	-14364
畢生	-14365
番茄	-14366
畸形	-14367
病情	-14368
療程	-14369
發問	-14370
發聲	-14371
白了	-14372
的你	-14373
的呢	-14374
的正	-14375
的重	-14376
的青	-14377
皆為	-14378
盈懷	-14379
益發	-14380
盛事	-14381
盛宴	-14382
盡頭	-14383
盤算	-14384
直達	-14385
真個	-14386
真身	-14387
眯起	-14388
督查	-14389
石雕	-14390
研習	-14391
硫酸	-14392
碎了	-14393
碎片	-14394
碧血	-14395
示威	-14396
祖國	-14397
神仙	-14398
神光	-14399
祥和	-14400
禁咒	-14401
禮品	-14402
私下	-14403
科室	-14404
積木	-14405
穩住	-14406
窗簾	-14407
站至	-14408
笑臉	-14409
等我	-14410
箇中	-14411
算力	-14412
管線	-14413
簽字	-14414
粒子	-14415
紙箱	-14416
絕無	-14417
絡繹	-14418
給料	-14419
絲絲	-14420
經絡	-14421
縣的	-14422
繁華	-14423
繳交	-14424
纔到	-14425
罷工	-14426
罹患	-14427
美感	-14428
美日	-14429
美滿	-14430
羣起	-14431
翻天	-14432
老子	-14433
者死	-14434
而動	-14435
而死	-14436
而然	-14437
而語	-14438
聖人	-14439
聖殿	-14440
聘請	-14441
聯想	-14442
聯機	-14443
聲中	-14444
聲望	-14445
聲浪	-14446
聽完	-14447
肇始	-14448
背離	-14449
能以	-14450
自卑	-14451
自如	-14452
自認	-14453
臭氧	-14454
致敬	-14455
臺海	-14456
與大	-14457
與眾	-14458
舉止	-14459
舉足	-14460
舊日	-14461
艦隊	-14462
花生	-14463
若在	-14464
若非	-14465
莫及	-14466
菁英	-14467
華爾	-14468
萃取	-14469
萬丈	-14470
萬代	-14471
萬千	-14472
萬達	-14473
落下	-14474
蒸餾	-14475
蓬勃	-14476
蕭家	-14477
薄弱	-14478
薩斯	-14479
薩雷	-14480
藍光	-14481
藤素	-14482
處死	-14483
蛻變	-14484
蜂蜜	-14485
衆多	-14486
衛福	-14487
表述	-14488
襯衫	-14489
要多	-14490
覈定	-14491
覈查	-14492
見她	-14493
見於	-14494
視作	-14495
親友	-14496
親戚	-14497
親手	-14498
親眼	-14499
觸摸	-14500
觸目	-14501
計時	-14502
註定	-14503
話來	-14504
該人	-14505
誇張	-14506
認清	-14507
誘因	-14508
誤會	-14509
說不	-14510
誰也	-14511
誰會	-14512
調動	-14513
請假	-14514
諸葛	-14515
證件	-14516
買超	-14517
贊同	-14518
贏了	-14519
走上	-14520
走人	-14521
走來	-14522
走訪	-14523
足了	-14524
跑去	-14525
路燈	-14526
跳出	-14527
蹙眉	-14528
車用	-14529
軍中	-14530
軟管	-14531
較好	-14532
載道	-14533
輕度	-14534
轉彎	-14535
轉手	-14536
轟動	-14537
辨別	-14538
辭職	-14539
農田	-14540
迭起	-14541
迷宮	-14542
追問	-14543
送達	-14544
逆轉	-14545
逐級	-14546
逐鹿	-14547
這三	-14548
這套	-14549
這筆	-14550
這纔	-14551
週二	-14552
逾期	-14553
運維	-14554
過境	-14555
過得	-14556
過量	-14557
道行	-14558
道長	-14559
遠方	-14560
選票	-14561
還將	-14562
還敢	-14563
那名	-14564
那末	-14565
那道	-14566
邯鄲	-14567
都好	-14568
都給	-14569
里弄	-14570
重而	-14571
鋁材	-14572
鋼廠	-14573
鎮江	-14574
長城	-14575
長生	-14576
門前	-14577
門羅	-14578
門關	-14579
開腔	-14580
間諜	-14581
關愛	-14582
降落	-14583
限度	-14584
限期	-14585
院子	-14586
陪著	-14587
陷阱	-14588
陽明	-14589
陽痿	-14590
隔板	-14591
隔音	-14592
險些	-14593
雀巢	-14594
雕刻	-14595
雙打	-14596
雙軌	-14597
雜質	-14598
離職	-14599
雲昭	-14600
雲湧	-14601
零下	-14602
零食	-14603
雷同	-14604
電站	-14605
電郵	-14606
震怒	-14607
霧霾	-14608
革新	-14609
音箱	-14610
韶華	-14611
頂部	-14612
預報	-14613
頗有	-14614
風口	-14615
風貌	-14616
飆升	-14617
飛了	-14618
飛來	-14619
飛的	-14620
飯碗	-14621
飲用	-14622
飽和	-14623
首府	-14624
驚濤	-14625
驚豔	-14626
骨的	-14627
體態	-14628
高出	-14629
高大	-14630
高頻	-14631
魔力	-14632
魔君	-14633
魔氣	-14634
魔王	-14635
鯨魚	-14636
鳴響	-14637
麵前	-14638
黃氏	-14639
黑馬	-14640
黨政	-14641
龍門	-14642
DNS	-14643
DVD	-14644
SEO	-14645
Wii	-14646
aru	-14647
asp	-14648
bps	-14649
ier	-14650
ivo	-14651
les	-14652
maz	-14653
oft	-14654
osm	-14655
ptt	-14656
rem	-14657
ris	-14658
ton	-14659
ven	-14660
▁As	-14661
▁De	-14662
▁HK	-14663
▁ex	-14664
▁or	-14665
▁也是	-14666
▁以前	-14667
▁你們	-14668
▁兩個	-14669
▁到底	-14670
▁加上	-14671
▁可能	-14672
▁品牌	-14673
▁因爲	-14674
▁固然	-14675
▁年內	-14676
▁幾乎	-14677
▁幾個	-14678
▁建議	-14679
▁後來	-14680
▁擁有	-14681
▁日的	-14682
▁日起	-14683
▁時間	-14684
▁本品	-14685
▁標準	-14686
▁瀏覽	-14687
▁畢竟	-14688
▁疫情	-14689
▁線上	-14690
▁而這	-14691
▁萬噸	-14692
▁萬輛	-14693
▁裴謙	-14694
▁計緣	-14695
▁設計	-14696
▁陳曌	-14697
一切都	-14698
一直都	-14699
一行人	-14700
一起喫	-14701
一點點	-14702
上下一	-14703
上個月	-14704
不合格	-14705
不完全	-14706
不是一	-14707
不是要	-14708
不要緊	-14709
不規則	-14710
不認識	-14711
不足爲	-14712
不過他	-14713
並冇有	-14714
並表示	-14715
中華電	-14716
中間的	-14717
之一炬	-14718
之力的	-14719
也十分	-14720
也希望	-14721
了一條	-14722
了一點	-14723
了進去	-14724
交易的	-14725
什麼事	-14726
什麼的	-14727
今世化	-14728
他也不	-14729
他倆的	-14730
他們會	-14731
他沒有	-14732
以為是	-14733
伊拉克	-14734
但只要	-14735
但還是	-14736
作品中	-14737
作用的	-14738
來到了	-14739
做到了	-14740
傾向於	-14741
優化的	-14742
全過程	-14743
公開的	-14744
冰淇淋	-14745
出一轍	-14746
出去的	-14747
出發點	-14748
分之一	-14749
別忘了	-14750
利用率	-14751
制定了	-14752
副書記	-14753
副會長	-14754
十二月	-14755
半功倍	-14756
參與了	-14757
參賽者	-14758
及以上	-14759
及細則	-14760
口中的	-14761
口味的	-14762
只是一	-14763
可以把	-14764
可以是	-14765
各自的	-14766
合作社	-14767
同性戀	-14768
同時在	-14769
呈現了	-14770
周進三	-14771
呱呱叫	-14772
和其它	-14773
和完善	-14774
咖啡廳	-14775
單方面	-14776
喻戶曉	-14777
嚴重性	-14778
國務卿	-14779
團體的	-14780
在其他	-14781
在同一	-14782
在地下	-14783
在學校	-14784
在某些	-14785
在此地	-14786
在沒有	-14787
在社會	-14788
在許多	-14789
在這些	-14790
在這片	-14791
地中海	-14792
地球上	-14793
型企業	-14794
壓根兒	-14795
多媒體	-14796
大教堂	-14797
大面積	-14798
失智症	-14799
女人的	-14800
女朋友	-14801
好喫的	-14802
好消息	-14803
如果不	-14804
娛樂圈	-14805
子固路	-14806
存在於	-14807
安裝在	-14808
安裝的	-14809
家裡的	-14810
將持續	-14811
對勁兒	-14812
小圈子	-14813
就如同	-14814
就會被	-14815
展現出	-14816
展示了	-14817
山東省	-14818
工程院	-14819
已完成	-14820
已超過	-14821
幾分鐘	-14822
座標為	-14823
廣大的	-14824
廣東省	-14825
引起了	-14826
強烈的	-14827
往往是	-14828
很多的	-14829
很清楚	-14830
必須是	-14831
想要的	-14832
意義的	-14833
我不想	-14834
我也是	-14835
我已經	-14836
我現在	-14837
手中的	-14838
指定的	-14839
採取了	-14840
接觸到	-14841
提到了	-14842
搖了搖	-14843
攝像頭	-14844
放在心	-14845
數百萬	-14846
新發展	-14847
明白了	-14848
星期四	-14849
春姑娘	-14850
是一間	-14851
是不能	-14852
暖氣片	-14853
最佳的	-14854
最強的	-14855
最後的	-14856
會引起	-14857
會議上	-14858
有一次	-14859
有多大	-14860
有多少	-14861
有能力	-14862
期待的	-14863
李承幹	-14864
格羅斯	-14865
條規定	-14866
極好的	-14867
概念化	-14868
橄欖油	-14869
機械化	-14870
沒多久	-14871
法明頓	-14872
洛嵐府	-14873
活動中	-14874
溫濕度	-14875
然後再	-14876
特徵是	-14877
犀利士	-14878
獨一無	-14879
玩遊戲	-14880
理事會	-14881
環境和	-14882
當地人	-14883
當年的	-14884
病人的	-14885
發展出	-14886
的一生	-14887
的事宜	-14888
的人影	-14889
的人數	-14890
的人身	-14891
的人類	-14892
的動靜	-14893
的區域	-14894
的反應	-14895
的名字	-14896
的地面	-14897
的場景	-14898
的天時	-14899
的天道	-14900
的孩子	-14901
的實力	-14902
的情感	-14903
的情景	-14904
的成員	-14905
的成就	-14906
的手法	-14907
的文章	-14908
的最大	-14909
的母親	-14910
的氣質	-14911
的現金	-14912
的科學	-14913
的範圍	-14914
的細節	-14915
的老人	-14916
的藝術	-14917
的那種	-14918
的顏色	-14919
目前已	-14920
看不懂	-14921
真的有	-14922
矚目的	-14923
短時間	-14924
石家莊	-14925
研究和	-14926
礦物質	-14927
站起身	-14928
第一屆	-14929
第二季	-14930
等優點	-14931
等產品	-14932
管理者	-14933
組成員	-14934
結構的	-14935
給他們	-14936
總統府	-14937
繁華的	-14938
而言之	-14939
聯想到	-14940
能滿足	-14941
至少有	-14942
與服務	-14943
蔡明興	-14944
蔡總統	-14945
行業中	-14946
衛生間	-14947
被列為	-14948
西北部	-14949
要求的	-14950
要的是	-14951
覺得很	-14952
記憶體	-14953
記者會	-14954
設計和	-14955
該署人	-14956
請務必	-14957
請大家	-14958
財政部	-14959
賞心悅	-14960
跨媒體	-14961
較多的	-14962
較小的	-14963
這不是	-14964
這些年	-14965
這兩人	-14966
這麼大	-14967
過多的	-14968
還有些	-14969
都一樣	-14970
都不能	-14971
都可能	-14972
都非常	-14973
鄉鎮級	-14974
釋出的	-14975
鍾東錦	-14976
靈活的	-14977
非政府	-14978
顯著的	-14979
餐飲業	-14980
驚人的	-14981
高爾夫	-14982
高精度	-14983
高雄市	-14984
****	-14985
PISA	-14986
ings	-14987
ions	-14988
lash	-14989
oral	-14990
ount	-14991
raft	-14992
soft	-14993
uest	-14994
ware	-14995
▁NFT	-14996
▁NTN	-14997
▁New	-14998
▁Rob	-14999
▁SEO	-15000
▁its	-15001
▁張繁枝	-15002
▁本公司	-15003
▁無論是	-15004
▁這也是	-15005
上市公司	-15006
不同的是	-15007
不斷提升	-15008
中國國家	-15009
中央空調	-15010
付之一炬	-15011
伊斯蘭教	-15012
佔地面積	-15013
佔總人口	-15014
保險公司	-15015
公司註冊	-15016
六中全會	-15017
出敵不意	-15018
動畫版由	-15019
受到影響	-15020
可以透過	-15021
可以進行	-15022
合作伙伴	-15023
吸引更多	-15024
告訴記者	-15025
外交部長	-15026
外籍勞工	-15027
大家可以	-15028
如此而已	-15029
官方網站	-15030
年代開始	-15031
幾個小時	-15032
弦外之音	-15033
從未有過	-15034
心甘情願	-15035
恆溫恆濕	-15036
愛洛公主	-15037
成為一個	-15038
我們已經	-15039
我們必須	-15040
所提供的	-15041
打擊率為	-15042
掃盲運動	-15043
操作人員	-15044
改革開放	-15045
新冠疫苗	-15046
未成年人	-15047
楓林校區	-15048
機器學習	-15049
永續發展	-15050
沒有什麼	-15051
渙然冰釋	-15052
溫室氣體	-15053
潛水教練	-15054
澳門特區	-15055
為主題的	-15056
為什麼會	-15057
烏克蘭人	-15058
特別的是	-15059
瓦解冰消	-15060
生產企業	-15061
生產廠家	-15062
當中陸地	-15063
的人來說	-15064
的人影兒	-15065
的前提下	-15066
盈懷充棟	-15067
相當大的	-15068
相關資訊	-15069
研究人員	-15070
碩士學位	-15071
確確實實	-15072
競爭力的	-15073
簡單來說	-15074
系列活動	-15075
綜合實力	-15076
網際網路	-15077
緬甸詐騙	-15078
胸中無數	-15079
英國皇家	-15080
茉莉公主	-15081
被認為是	-15082
解決方法	-15083
資料顯示	-15084
資本主義	-15085
這是一種	-15086
這是因為	-15087
進行處理	-15088
還有其他	-15089
釋迦牟尼	-15090
重點工作	-15091
鑄鐵井蓋	-15092
隨時隨地	-15093
電動車的	-15094
非常適合	-15095
風起雲湧	-15096
cript	-15097
ikTok	-15098
mazon	-15099
▁LINE	-15100
▁Play	-15101
▁Plus	-15102
▁Tech	-15103
▁cont	-15104
▁said	-15105
▁very	-15106
▁一般來說	-15107
可持續發展	-15108
很大程度上	-15109
演化心理學	-15110
為客戶提供	-15111
老式石庫門	-15112
▁Yahoo	-15113
疫情指揮中心	-15114
省的一個市鎮	-15115
集團有限公司	-15116
ChatGPT	-15117
NetBIOS	-15118
Windows	-15119
formula	-15120
當中陸地面積為	-15121
鄉鎮級行政單位	-15122
.........	-15123
是下轄的一個鄉鎮級行政單位	-15124
As	-15125
Bl	-15126
CE	-15127
CN	-15128
DF	-15129
FI	-15130
IV	-15131
ME	-15132
SC	-15133
TX	-15134
ai	-15135
te	-15136
xx	-15137
’。	-15138
▁~	-15139
▁「	-15140
▁且	-15141
▁例	-15142
▁備	-15143
▁公	-15144
▁冷	-15145
▁吉	-15146
▁回	-15147
▁座	-15148
▁戴	-15149
▁早	-15150
▁求	-15151
▁注	-15152
▁洪	-15153
▁烏	-15154
▁爲	-15155
▁理	-15156
▁科	-15157
▁粉	-15158
▁給	-15159
▁翻	-15160
▁者	-15161
▁買	-15162
▁選	-15163
▁鄭	-15164
▁錢	-15165
▁集	-15166
▁魚	-15167
▁齊	-15168
一刀	-15169
一員	-15170
一招	-15171
一架	-15172
一毫	-15173
一縮	-15174
一聽	-15175
一詞	-15176
七星	-15177
三兩	-15178
三四	-15179
上報	-15180
上黨	-15181
下有	-15182
下行	-15183
下雨	-15184
不予	-15185
不問	-15186
不均	-15187
不待	-15188
不愛	-15189
不料	-15190
不測	-15191
不聽	-15192
丙烯	-15193
丟了	-15194
丟臉	-15195
並能	-15196
並行	-15197
中西	-15198
主公	-15199
之作	-15200
之技	-15201
之症	-15202
也已	-15203
也與	-15204
乳液	-15205
乳腺	-15206
了沒	-15207
了的	-15208
事工	-15209
事變	-15210
互換	-15211
五帝	-15212
五日	-15213
交會	-15214
交鋒	-15215
交錯	-15216
人便	-15217
人去	-15218
人或	-15219
人看	-15220
今的	-15221
仍未	-15222
仍為	-15223
他命	-15224
他很	-15225
他從	-15226
他更	-15227
付之	-15228
代之	-15229
代工	-15230
令我	-15231
令牌	-15232
以我	-15233
任憑	-15234
任教	-15235
伊格	-15236
佛的	-15237
你家	-15238
佳人	-15239
供需	-15240
侵擾	-15241
俗稱	-15242
信箱	-15243
修的	-15244
修補	-15245
修養	-15246
倒在	-15247
倒數	-15248
借貸	-15249
借鑒	-15250
倡導	-15251
偏見	-15252
做個	-15253
偵察	-15254
偽造	-15255
傀儡	-15256
催促	-15257
傳入	-15258
僅需	-15259
億萬	-15260
儘快	-15261
儲能	-15262
元首	-15263
充裕	-15264
兇暴	-15265
兇獸	-15266
光了	-15267
光彩	-15268
免除	-15269
入駐	-15270
內助	-15271
內政	-15272
全副	-15273
全區	-15274
全文	-15275
全路	-15276
兩三	-15277
兩地	-15278
兩款	-15279
兩組	-15280
兩頭	-15281
八千	-15282
公屋	-15283
公爵	-15284
兵力	-15285
兵法	-15286
具的	-15287
再把	-15288
再見	-15289
冒犯	-15290
冬奧	-15291
冰凍	-15292
冷氣	-15293
冷淡	-15294
凍結	-15295
凡事	-15296
出世	-15297
分區	-15298
分局	-15299
分校	-15300
分管	-15301
刑案	-15302
列印	-15303
初版	-15304
判定	-15305
別樣	-15306
利器	-15307
到手	-15308
刷卡	-15309
刷新	-15310
前一	-15311
前夕	-15312
前田	-15313
剩餘	-15314
副本	-15315
劉備	-15316
加薩	-15317
劣質	-15318
助攻	-15319
勢將	-15320
化肥	-15321
北東	-15322
北韓	-15323
千億	-15324
升官	-15325
半步	-15326
卓絕	-15327
卡達	-15328
印有	-15329
印記	-15330
參悟	-15331
又被	-15332
友情	-15333
取捨	-15334
口號	-15335
古典	-15336
只用	-15337
可有	-15338
可比	-15339
可疑	-15340
可說	-15341
可選	-15342
司長	-15343
同工	-15344
名爲	-15345
名聲	-15346
名譽	-15347
名額	-15348
向了	-15349
吸入	-15350
吸塵	-15351
吸血	-15352
告別	-15353
周仙	-15354
咀嚼	-15355
和不	-15356
和前	-15357
和天	-15358
和她	-15359
和水	-15360
和阿	-15361
品嘗	-15362
品類	-15363
哈吉	-15364
哈里	-15365
售前	-15366
售票	-15367
唯心	-15368
商事	-15369
啓齒	-15370
喫得	-15371
單於	-15372
嘔吐	-15373
器等	-15374
四下	-15375
四肢	-15376
四輪	-15377
國師	-15378
國聯	-15379
圍觀	-15380
團聚	-15381
土星	-15382
在為	-15383
在黑	-15384
地段	-15385
均可	-15386
均已	-15387
坊鑣	-15388
坦承	-15389
坦白	-15390
埋沒	-15391
城門	-15392
執事	-15393
堆疊	-15394
報應	-15395
報案	-15396
塞塔	-15397
境地	-15398
墜入	-15399
壓的	-15400
外圈	-15401
外星	-15402
外殼	-15403
外賣	-15404
外頭	-15405
多以	-15406
多到	-15407
多是	-15408
多歲	-15409
多為	-15410
多萬	-15411
夠味	-15412
大事	-15413
大便	-15414
大到	-15415
大勝	-15416
大千	-15417
大喝	-15418
大妖	-15419
大悲	-15420
大手	-15421
大浪	-15422
大神	-15423
天帝	-15424
天後	-15425
天罡	-15426
太后	-15427
太網	-15428
央視	-15429
夯實	-15430
失效	-15431
失落	-15432
奈美	-15433
奢華	-15434
奮起	-15435
奶茶	-15436
好吧	-15437
好邦	-15438
如人	-15439
如火	-15440
妙齡	-15441
姑姑	-15442
姬的	-15443
威能	-15444
娘子	-15445
字條	-15446
字體	-15447
存放	-15448
孫蓉	-15449
孵化	-15450
學了	-15451
學園	-15452
學業	-15453
安娜	-15454
安撫	-15455
安東	-15456
宏偉	-15457
官兵	-15458
客堂	-15459
室裡	-15460
宮主	-15461
家和	-15462
容忍	-15463
寂靜	-15464
密密	-15465
寧波	-15466
寫了	-15467
寬解	-15468
專員	-15469
專長	-15470
對臺	-15471
小半	-15472
小塊	-15473
小姊	-15474
小門	-15475
就對	-15476
就用	-15477
就緒	-15478
尺度	-15479
尾的	-15480
居安	-15481
屋內	-15482
屏蔽	-15483
展出	-15484
屢屢	-15485
屯門	-15486
山上	-15487
山地	-15488
山水	-15489
山莊	-15490
山谷	-15491
巨神	-15492
帝劍	-15493
師長	-15494
帽子	-15495
幡然	-15496
幫他	-15497
干涉	-15498
平平	-15499
平息	-15500
平滑	-15501
平鄉	-15502
幹事	-15503
幹嘛	-15504
幾百	-15505
底子	-15506
底盤	-15507
店舖	-15508
廂房	-15509
廟宇	-15510
廢除	-15511
廣爲	-15512
建物	-15513
引爆	-15514
強行	-15515
彈指	-15516
彈藥	-15517
影城	-15518
影集	-15519
往事	-15520
後半	-15521
後於	-15522
後生	-15523
徑向	-15524
得像	-15525
得票	-15526
得過	-15527
從嚴	-15528
從容	-15529
微型	-15530
德甲	-15531
心了	-15532
心和	-15533
心地	-15534
心安	-15535
心法	-15536
心潮	-15537
心窩	-15538
心絃	-15539
心願	-15540
快要	-15541
怎能	-15542
怒吼	-15543
性好	-15544
性情	-15545
怪的	-15546
恰好	-15547
愛上	-15548
慈悲	-15549
慘遭	-15550
應以	-15551
應時	-15552
應許	-15553
成百	-15554
我了	-15555
我又	-15556
我得	-15557
我最	-15558
戰死	-15559
房貸	-15560
打掃	-15561
找人	-15562
抉擇	-15563
抗擊	-15564
抱歉	-15565
抵押	-15566
抵禦	-15567
拆下	-15568
拔尖	-15569
拖延	-15570
招商	-15571
招引	-15572
招待	-15573
招致	-15574
拿了	-15575
指紋	-15576
按揭	-15577
挑剔	-15578
捲土	-15579
授課	-15580
掌管	-15581
排序	-15582
排斥	-15583
排污	-15584
採樣	-15585
提防	-15586
摩托	-15587
據悉	-15588
擡起	-15589
擺在	-15590
攤位	-15591
支取	-15592
收場	-15593
收貨	-15594
改正	-15595
改裝	-15596
攻勢	-15597
放映	-15598
放進	-15599
敏銳	-15600
救了	-15601
教員	-15602
教誨	-15603
敢說	-15604
敦睦	-15605
整容	-15606
敵對	-15607
敵手	-15608
敷衍	-15609
文森	-15610
文的	-15611
斯頓	-15612
斷定	-15613
方可	-15614
於天	-15615
於我	-15616
於耳	-15617
旁人	-15618
日由	-15619
日軍	-15620
早日	-15621
早晨	-15622
早點	-15623
明治	-15624
明王	-15625
易懂	-15626
星等	-15627
星門	-15628
映現	-15629
昨晚	-15630
是何	-15631
是同	-15632
是嗎	-15633
是本	-15634
是萬	-15635
是那	-15636
時應	-15637
普利	-15638
普蘭	-15639
暗金	-15640
曆史	-15641
曉暢	-15642
曖昧	-15643
更正	-15644
曼谷	-15645
最適	-15646
會場	-15647
會把	-15648
月經	-15649
有色	-15650
期滿	-15651
木板	-15652
未卜	-15653
末的	-15654
末端	-15655
杜絕	-15656
東海	-15657
東莞	-15658
某一	-15659
柔性	-15660
校務	-15661
梅伊	-15662
條例	-15663
梵天	-15664
概括	-15665
樓下	-15666
樓層	-15667
標凖	-15668
樹林	-15669
橋樑	-15670
機是	-15671
機油	-15672
機翼	-15673
橫向	-15674
橫掃	-15675
檢方	-15676
檢索	-15677
櫻花	-15678
欣慰	-15679
正月	-15680
武的	-15681
歷年	-15682
歸還	-15683
殲滅	-15684
殺傷	-15685
殺掉	-15686
殺敵	-15687
殺的	-15688
每場	-15689
毒品	-15690
毛澤	-15691
毛病	-15692
氏的	-15693
氏體	-15694
民調	-15695
民黨	-15696
氣和	-15697
沉穩	-15698
沒入	-15699
泄露	-15700
波及	-15701
波的	-15702
泳池	-15703
洞口	-15704
洞察	-15705
津貼	-15706
洩漏	-15707
活化	-15708
活著	-15709
派系	-15710
浩大	-15711
海峽	-15712
海王	-15713
消極	-15714
消霧	-15715
涉案	-15716
淡去	-15717
淨化	-15718
深信	-15719
深吸	-15720
淵源	-15721
清兒	-15722
減排	-15723
湖邊	-15724
溫層	-15725
滲漏	-15726
滴滴	-15727
滿懷	-15728
漲價	-15729
潛入	-15730
潛能	-15731
潞州	-15732
濱海	-15733
火燒	-15734
火爆	-15735
炫耀	-15736
為我	-15737
烏斯	-15738
烏鴉	-15739
無事	-15740
無幾	-15741
無庸	-15742
無恙	-15743
無故	-15744
無綫	-15745
無聲	-15746
無際	-15747
熱泵	-15748
熱潮	-15749
熱電	-15750
營商	-15751
爆開	-15752
爬上	-15753
爲他	-15754
爲我	-15755
爲難	-15756
版圖	-15757
牛排	-15758
牛皮	-15759
牛頭	-15760
牠們	-15761
特西	-15762
牽引	-15763
牽連	-15764
獎的	-15765
王室	-15766
王爺	-15767
王苡	-15768
珍寶	-15769
球鞋	-15770
琥珀	-15771
琳德	-15772
環島	-15773
甘迺	-15774
甜美	-15775
產學	-15776
用法	-15777
田園	-15778
界中	-15779
界域	-15780
留存	-15781
當做	-15782
當晚	-15783
疊加	-15784
疲軟	-15785
發票	-15786
百兵	-15787
百餘	-15788
的刀	-15789
的受	-15790
的將	-15791
的巨	-15792
的從	-15793
的排	-15794
的被	-15795
的要	-15796
皇冠	-15797
皺眉	-15798
皺起	-15799
盆地	-15800
盈餘	-15801
盡然	-15802
監會	-15803
監護	-15804
盤價	-15805
直奔	-15806
直立	-15807
相像	-15808
相好	-15809
相稱	-15810
相等	-15811
相見	-15812
相距	-15813
相隔	-15814
省的	-15815
眉梢	-15816
看她	-15817
看書	-15818
看清	-15819
眼淚	-15820
着力	-15821
着那	-15822
短髮	-15823
石材	-15824
破開	-15825
碩大	-15826
碳化	-15827
碴兒	-15828
確信	-15829
磨蹭	-15830
磨鍊	-15831
礦業	-15832
礦物	-15833
社保	-15834
祕訣	-15835
神皇	-15836
神話	-15837
禁忌	-15838
私密	-15839
私心	-15840
私有	-15841
科索	-15842
秒鐘	-15843
移送	-15844
稀奇	-15845
稅務	-15846
稍有	-15847
空心	-15848
突顯	-15849
立交	-15850
立地	-15851
童話	-15852
符籙	-15853
管內	-15854
管路	-15855
篇幅	-15856
簡略	-15857
籠罩	-15858
粉底	-15859
粘接	-15860
紅星	-15861
紅軍	-15862
紅雀	-15863
紋理	-15864
納爾	-15865
紐曼	-15866
索性	-15867
細細	-15868
細語	-15869
結實	-15870
結底	-15871
結盟	-15872
結算	-15873
結識	-15874
給的	-15875
經年	-15876
經文	-15877
經曆	-15878
網架	-15879
綻放	-15880
緊繃	-15881
線索	-15882
緩沖	-15883
緯創	-15884
縱橫	-15885
織物	-15886
繩子	-15887
繪製	-15888
羅漢	-15889
美中	-15890
美人	-15891
羣聚	-15892
翕然	-15893
翼翼	-15894
老翁	-15895
考場	-15896
而就	-15897
而異	-15898
耕耘	-15899
耗損	-15900
耳聞	-15901
聖女	-15902
聖尊	-15903
聖玄	-15904
聚合	-15905
聲勢	-15906
聽取	-15907
聽由	-15908
肉類	-15909
肉食	-15910
胖子	-15911
胡椒	-15912
胳膊	-15913
胸部	-15914
能從	-15915
能打	-15916
脆弱	-15917
脫貧	-15918
脫髮	-15919
腸胃	-15920
膠帶	-15921
膽子	-15922
臥室	-15923
臨近	-15924
自語	-15925
自費	-15926
至強	-15927
致命	-15928
致癌	-15929
致電	-15930
臺人	-15931
與您	-15932
色光	-15933
色差	-15934
花順	-15935
花香	-15936
若輕	-15937
莊嚴	-15938
莊園	-15939
莊村	-15940
華府	-15941
華生	-15942
萬安	-15943
萬界	-15944
落成	-15945
蒼天	-15946
蒼山	-15947
蕩蕩	-15948
薔薇	-15949
薯條	-15950
藥局	-15951
虛無	-15952
螺母	-15953
蠟燭	-15954
血癥	-15955
血神	-15956
行車	-15957
行道	-15958
衣人	-15959
表格	-15960
衷心	-15961
被你	-15962
被動	-15963
被困	-15964
被她	-15965
被捕	-15966
裂縫	-15967
裏亞	-15968
裝卸	-15969
褐色	-15970
西斯	-15971
要說	-15972
見德	-15973
覺察	-15974
覺悟	-15975
解毒	-15976
觸碰	-15977
訂製	-15978
計較	-15979
討好	-15980
訴求	-15981
診療	-15982
註意	-15983
註解	-15984
評測	-15985
詛咒	-15986
試煉	-15987
話音	-15988
該校	-15989
說服	-15990
調升	-15991
調和	-15992
調適	-15993
請問	-15994
警員	-15995
警示	-15996
警覺	-15997
變數	-15998
變為	-15999
變爲	-16000
讓其	-16001
讓它	-16002
讚美	-16003
豐厚	-16004
象牙	-16005
豪宅	-16006
貢院	-16007
貨櫃	-16008
貨運	-16009
貼心	-16010
貼紙	-16011
貼身	-16012
資安	-16013
賓館	-16014
賡續	-16015
賣家	-16016
質素	-16017
賺到	-16018
賽道	-16019
贈送	-16020
赤字	-16021
走線	-16022
走開	-16023
起先	-16024
趕來	-16025
趨緩	-16026
跑步	-16027
跟前	-16028
跟手	-16029
跨年	-16030
路易	-16031
路由	-16032
跳舞	-16033
跳躍	-16034
踏入	-16035
身旁	-16036
身法	-16037
車位	-16038
車和	-16039
車款	-16040
軍團	-16041
軍官	-16042
軍用	-16043
軸器	-16044
較早	-16045
較量	-16046
載體	-16047
輕便	-16048
輻鰭	-16049
轉子	-16050
轉會	-16051
辦報	-16052
農地	-16053
近幾	-16054
追擊	-16055
退回	-16056
送上	-16057
送他	-16058
送回	-16059
送禮	-16060
這波	-16061
通欄	-16062
通途	-16063
通體	-16064
造作	-16065
造紙	-16066
連年	-16067
連絡	-16068
連載	-16069
進位	-16070
進場	-16071
遊的	-16072
過一	-16073
過大	-16074
道中	-16075
違約	-16076
違背	-16077
遙控	-16078
遞交	-16079
遠了	-16080
遠端	-16081
遠距	-16082
適時	-16083
遲緩	-16084
還魂	-16085
那幾	-16086
那條	-16087
鄉民	-16088
酌量	-16089
配偶	-16090
配色	-16091
酸的	-16092
醒目	-16093
醜聞	-16094
釀酒	-16095
重工	-16096
重疊	-16097
量測	-16098
金銀	-16099
金龍	-16100
銀杏	-16101
銀灰	-16102
鋪設	-16103
鋼材	-16104
錨索	-16105
鏽鋼	-16106
鑒定	-16107
長途	-16108
長髮	-16109
閃光	-16110
開出	-16111
開場	-16112
開拍	-16113
開朗	-16114
開裂	-16115
開頭	-16116
閻王	-16117
防毒	-16118
防爆	-16119
阻滯	-16120
阿格	-16121
陜西	-16122
陳列	-16123
陳建	-16124
陽臺	-16125
隊友	-16126
隔絕	-16127
隔閡	-16128
隻手	-16129
集會	-16130
雖有	-16131
雜草	-16132
難關	-16133
電價	-16134
電費	-16135
霍地	-16136
青龍	-16137
靜靜	-16138
非凡	-16139
頂上	-16140
領受	-16141
風力	-16142
風情	-16143
風扇	-16144
風火	-16145
飄逸	-16146
飛掠	-16147
飯後	-16148
飾品	-16149
餅乾	-16150
首創	-16151
首屆	-16152
馬爾	-16153
馬的	-16154
駁回	-16155
駕車	-16156
騰飛	-16157
驚惶	-16158
體係	-16159
體外	-16160
高傲	-16161
高原	-16162
魔將	-16163
魚類	-16164
鳳山	-16165
鷹旗	-16166
麗的	-16167
麻辣	-16168
黔驢	-16169
點綴	-16170
***	-16171
CSS	-16172
ETF	-16173
GRC	-16174
JNP	-16175
Sam	-16176
USB	-16177
ala	-16178
ami	-16179
ana	-16180
aus	-16181
elf	-16182
ics	-16183
ild	-16184
iph	-16185
ler	-16186
old	-16187
oth	-16188
ude	-16189
ung	-16190
▁?!	-16191
▁En	-16192
▁GE	-16193
▁MO	-16194
▁We	-16195
▁ec	-16196
▁qu	-16197
▁一起	-16198
▁不僅	-16199
▁主要	-16200
▁億人	-16201
▁其次	-16202
▁到了	-16203
▁功能	-16204
▁她的	-16205
▁完成	-16206
▁家庭	-16207
▁就算	-16208
▁左右	-16209
▁希望	-16210
▁年前	-16211
▁年底	-16212
▁提升	-16213
▁方羽	-16214
▁架構	-16215
▁每年	-16216
▁水電	-16217
▁父母	-16218
▁直到	-16219
▁第七	-16220
▁能夠	-16221
▁莫德	-16222
▁萬瓩	-16223
▁設備	-16224
▁這裡	-16225
▁還是	-16226
▁那個	-16227
▁雖說	-16228
▁電子	-16229
一定有	-16230
一羣人	-16231
上述的	-16232
下意識	-16233
不久前	-16234
不僅僅	-16235
不影響	-16236
不是很	-16237
不相信	-16238
不瞭解	-16239
不穩定	-16240
不至於	-16241
不過是	-16242
不適應	-16243
世紀初	-16244
世紀的	-16245
並不會	-16246
並提出	-16247
並獲得	-16248
中使用	-16249
中指出	-16250
主要由	-16251
主題曲	-16252
之規定	-16253
了一份	-16254
了不起	-16255
事業的	-16256
二十七	-16257
些時候	-16258
他們對	-16259
代表性	-16260
以滿足	-16261
以達到	-16262
任重而	-16263
伊格西	-16264
休旅車	-16265
但是我	-16266
低成本	-16267
佔有率	-16268
你可能	-16269
你怎麼	-16270
來判斷	-16271
便宜的	-16272
健身房	-16273
傳佛教	-16274
充電樁	-16275
兒子的	-16276
兩者的	-16277
其中有	-16278
兼而有	-16279
冷冰冰	-16280
出口額	-16281
出生的	-16282
分佈在	-16283
到中國	-16284
到自己	-16285
制度的	-16286
則需要	-16287
加盟商	-16288
動腦筋	-16289
北部的	-16290
十年的	-16291
南極洲	-16292
博弈者	-16293
印度尼	-16294
只剩下	-16295
只有在	-16296
只要有	-16297
可以做	-16298
可以先	-16299
可以有	-16300
可以說	-16301
可謂是	-16302
可通過	-16303
司馬馥	-16304
各方面	-16305
名特優	-16306
吸血鬼	-16307
呈現出	-16308
和大家	-16309
和技術	-16310
和生活	-16311
和設計	-16312
和遊戲	-16313
哈瑪斯	-16314
哈薩克	-16315
喜愛的	-16316
回來了	-16317
因疫情	-16318
土生土	-16319
在此間	-16320
在當地	-16321
在這場	-16322
在那兒	-16323
地看著	-16324
壓力下	-16325
壓力的	-16326
夏威夷	-16327
多倫多	-16328
大型的	-16329
大大的	-16330
大小的	-16331
大會上	-16332
大部份	-16333
太多的	-16334
奧克蘭	-16335
奧地利	-16336
好朋友	-16337
好萊塢	-16338
姜青娥	-16339
姬天耀	-16340
學校的	-16341
完完全	-16342
完沒了	-16343
家族的	-16344
容易被	-16345
對我們	-16346
對臺灣	-16347
小夥伴	-16348
小黑蚊	-16349
尤其在	-16350
就不能	-16351
就是你	-16352
就行了	-16353
就需要	-16354
常委會	-16355
平易近	-16356
張單曲	-16357
彭必成	-16358
很強的	-16359
得天獨	-16360
心血管	-16361
怎麼了	-16362
怎麼說	-16363
性行為	-16364
性質的	-16365
我們也	-16366
戰爭中	-16367
房間的	-16368
所得稅	-16369
打招呼	-16370
指示燈	-16371
挑戰者	-16372
提升了	-16373
換言之	-16374
擁有一	-16375
操作的	-16376
教職工	-16377
整體的	-16378
數十萬	-16379
斯洛維	-16380
新北市	-16381
於香港	-16382
施特拉	-16383
日發行	-16384
是他的	-16385
是你的	-16386
是多少	-16387
是完全	-16388
是目前	-16389
是第一	-16390
是透過	-16391
是通過	-16392
是香港	-16393
時間和	-16394
智慧型	-16395
更新的	-16396
最後一	-16397
會自動	-16398
會變成	-16399
有一位	-16400
有一期	-16401
有三個	-16402
有問題	-16403
有意思	-16404
有目共	-16405
期間的	-16406
本來是	-16407
極高的	-16408
權力的	-16409
歐巴馬	-16410
死亡率	-16411
每小時	-16412
毛澤東	-16413
永續性	-16414
污染源	-16415
沒料到	-16416
治療的	-16417
注意的	-16418
消失了	-16419
液壓油	-16420
湖北省	-16421
溫度計	-16422
漸漸地	-16423
漸漸的	-16424
火車站	-16425
為廣大	-16426
無污染	-16427
物理學	-16428
狀態下	-16429
王苡丞	-16430
玻尿酸	-16431
珍貴的	-16432
甘迺迪	-16433
生態系	-16434
用各種	-16435
用戶在	-16436
用這種	-16437
男人的	-16438
男性的	-16439
當前的	-16440
癌細胞	-16441
的一員	-16442
的人是	-16443
的個人	-16444
的各種	-16445
的地點	-16446
的大地	-16447
的女生	-16448
的學習	-16449
的心思	-16450
的心靈	-16451
的性能	-16452
的性質	-16453
的感情	-16454
的房子	-16455
的技巧	-16456
的效益	-16457
的族羣	-16458
的時分	-16459
的時機	-16460
的父親	-16461
的理想	-16462
的皮膚	-16463
的神色	-16464
的空氣	-16465
的美食	-16466
的身價	-16467
的響動	-16468
目瞭然	-16469
相對的	-16470
看一眼	-16471
看到的	-16472
看看吧	-16473
眼中的	-16474
知道了	-16475
知道的	-16476
石灰窯	-16477
研發的	-16478
科索沃	-16479
第三次	-16480
等人的	-16481
等內容	-16482
等特點	-16483
等眾多	-16484
粉碎機	-16485
系統中	-16486
紅色的	-16487
紐約市	-16488
紫外線	-16489
經典的	-16490
網站或	-16491
緊接着	-16492
老師的	-16493
而且在	-16494
而水域	-16495
聯準會	-16496
聽起來	-16497
能見度	-16498
至少要	-16499
與他人	-16500
與社會	-16501
舊金山	-16502
舒適的	-16503
范特西	-16504
莎琳德	-16505
華爾街	-16506
萬人次	-16507
萬元的	-16508
落在了	-16509
著一個	-16510
葡萄牙	-16511
薩迪克	-16512
薩雷茲	-16513
製造的	-16514
要不是	-16515
要做的	-16516
規範化	-16517
角色的	-16518
解放軍	-16519
該年他	-16520
詳情請	-16521
說什麼	-16522
謝見德	-16523
讓人們	-16524
購買力	-16525
走出來	-16526
足球隊	-16527
路透社	-16528
輻鰭魚	-16529
轉眼間	-16530
透明度	-16531
這一切	-16532
這一場	-16533
這一天	-16534
這三個	-16535
這些都	-16536
這個詞	-16537
這幾個	-16538
這樣說	-16539
這麼說	-16540
進去了	-16541
遇到了	-16542
過來的	-16543
過程的	-16544
達不到	-16545
適用的	-16546
選拔賽	-16547
還是一	-16548
部分的	-16549
都已經	-16550
都相當	-16551
長期的	-16552
開放式	-16553
開發商	-16554
關係人	-16555
防腐劑	-16556
陳萬水	-16557
階段的	-16558
隱私權	-16559
隱約約	-16560
集中在	-16561
雖然是	-16562
雲消霧	-16563
霎時間	-16564
面上的	-16565
頌哈吉	-16566
領導的	-16567
額外的	-16568
顯示出	-16569
顰一笑	-16570
馬斯克	-16571
駕駛者	-16572
騙人的	-16573
體積小	-16574
高性能	-16575
高效的	-16576
黑山派	-16577
Book	-16578
ames	-16579
ener	-16580
ents	-16581
ious	-16582
mart	-16583
mmic	-16584
stag	-16585
▁...	-16586
▁API	-16587
▁ETF	-16588
▁GPU	-16589
▁Sil	-16590
▁丹妮婭	-16591
▁個國家	-16592
▁年開始	-16593
▁李七夜	-16594
▁沒想到	-16595
▁第一千	-16596
▁第一次	-16597
▁葉伏天	-16598
▁這一幕	-16599
一念之差	-16600
不僅僅是	-16601
不折不扣	-16602
中國官方	-16603
丹格羅斯	-16604
也不知道	-16605
事半功倍	-16606
人的生活	-16607
介紹一下	-16608
付之東流	-16609
以及其他	-16610
任何一個	-16611
任重而道	-16612
休息一下	-16613
信息技術	-16614
全方位的	-16615
全球經濟	-16616
其中包含	-16617
具體地說	-16618
兼而有之	-16619
刻板印象	-16620
副總經理	-16621
力不從心	-16622
包養行情	-16623
半數以上	-16624
印象深刻	-16625
只有一個	-16626
可以分為	-16627
可能導致	-16628
告訴我們	-16629
和和氣氣	-16630
嚴重影響	-16631
報導指出	-16632
大學畢業	-16633
如出一轍	-16634
如果我們	-16635
如此一來	-16636
媒體報導	-16637
家喻戶曉	-16638
對着韋浩	-16639
就會變得	-16640
局副局長	-16641
巴勒斯坦	-16642
幾乎所有	-16643
廢氣處理	-16644
建築面積	-16645
建設項目	-16646
彈指之間	-16647
息息相關	-16648
成百上千	-16649
我們現在	-16650
所使用的	-16651
新聞發布	-16652
施特拉森	-16653
時有發生	-16654
最主要的	-16655
會越來越	-16656
有關部門	-16657
服務企業	-16658
本來面目	-16659
東山再起	-16660
核心技術	-16661
此起彼落	-16662
武漢肺炎	-16663
歷史建築	-16664
歷史文化	-16665
歸根結底	-16666
民營企業	-16667
海洋生物	-16668
溫徹斯特	-16669
火山爆發	-16670
物理學家	-16671
獲得更多	-16672
現代社會	-16673
生死攸關	-16674
發現自己	-16675
百威啤酒	-16676
的一句話	-16677
相對而言	-16678
相關規定	-16679
看着韋浩	-16680
研究表明	-16681
種族主義	-16682
節能環保	-16683
絡繹不絕	-16684
維吾爾人	-16685
能源科技	-16686
自我介紹	-16687
自然而然	-16688
蕩然無存	-16689
融資平臺	-16690
視覺效果	-16691
財務自由	-16692
貨物運輸	-16693
身不由己	-16694
身體健康	-16695
農業農村	-16696
這就是說	-16697
遊戲中的	-16698
都市更新	-16699
隱隱約約	-16700
雄獅旅遊	-16701
飲食習慣	-16702
駭人聽聞	-16703
體長可達	-16704
點了首肯	-16705
ction	-16706
erson	-16707
▁ISBN	-16708
▁Post	-16709
▁以上就是	-16710
▁除此之外	-16711
中脫穎而出	-16712
使用壽命長	-16713
印度尼西亞	-16714
屆全國人大	-16715
斯洛維尼亞	-16716
法明頓計劃	-16717
阿姆斯特丹	-16718
非政府組織	-16719
outube	-16720
▁Apple	-16721
▁which	-16722
值得注意的是	-16723
州的一個市鎮	-16724
有限責任公司	-16725
疫情防控工作	-16726
而水域面積為	-16727
臺大校長遴選	-16728
mmicron	-16729
stagram	-16730
▁econom	-16731
▁nation	-16732
的重要組成部分	-16733
▁Netflix	-16734
▁YouTube	-16735
)。	-16736
.!	-16737
Ad	-16738
BD	-16739
Cl	-16740
DD	-16741
DI	-16742
FB	-16743
FR	-16744
KK	-16745
LA	-16746
Le	-16747
MB	-16748
MM	-16749
MW	-16750
PE	-16751
PK	-16752
Pr	-16753
RE	-16754
SK	-16755
Se	-16756
Wh	-16757
be	-16758
ep	-16759
gh	-16760
lt	-16761
mo	-16762
▁仙	-16763
▁使	-16764
▁信	-16765
▁做	-16766
▁像	-16767
▁入	-16768
▁凌	-16769
▁劍	-16770
▁受	-16771
▁口	-16772
▁地	-16773
▁寶	-16774
▁市	-16775
▁常	-16776
▁復	-16777
▁快	-16778
▁思	-16779
▁拉	-16780
▁施	-16781
▁極	-16782
▁款	-16783
▁港	-16784
▁片	-16785
▁玄	-16786
▁玉	-16787
▁玩	-16788
▁秋	-16789
▁紫	-16790
▁花	-16791
▁董	-16792
▁角	-16793
▁過	-16794
▁重	-16795
▁間	-16796
▁難	-16797
▁頂	-16798
▁預	-16799
▁顔	-16800
▁魏	-16801
。*	-16802
一九	-16803
一怔	-16804
一成	-16805
一掃	-16806
一整	-16807
一會	-16808
一瓶	-16809
一章	-16810
一艘	-16811
一號	-16812
一衆	-16813
一鍵	-16814
一首	-16815
丈量	-16816
上加	-16817
上町	-16818
上色	-16819
上說	-16820
下部	-16821
不前	-16822
不加	-16823
不愧	-16824
不拘	-16825
不暢	-16826
不留	-16827
不著	-16828
不衰	-16829
不許	-16830
不負	-16831
不迭	-16832
不長	-16833
不限	-16834
世俗	-16835
世尊	-16836
丟掉	-16837
中亞	-16838
中大	-16839
中帶	-16840
中資	-16841
主委	-16842
主炮	-16843
之不	-16844
之久	-16845
之劍	-16846
之姿	-16847
之徒	-16848
之戀	-16849
之極	-16850
之靈	-16851
之高	-16852
乎其	-16853
乖乖	-16854
九個	-16855
也以	-16856
也說	-16857
亂了	-16858
了啊	-16859
了在	-16860
了心	-16861
了摸	-16862
了此	-16863
事中	-16864
二世	-16865
二代	-16866
二位	-16867
二條	-16868
二樓	-16869
五一	-16870
亞特	-16871
交織	-16872
亮光	-16873
人丁	-16874
介意	-16875
仍可	-16876
仍能	-16877
他卻	-16878
令裡	-16879
仲舒	-16880
份的	-16881
伊利	-16882
伊勒	-16883
估算	-16884
似有	-16885
位時	-16886
低聲	-16887
何地	-16888
佛像	-16889
佛山	-16890
佛羅	-16891
作了	-16892
作是	-16893
作答	-16894
作詞	-16895
你做	-16896
你又	-16897
你真	-16898
佩爾	-16899
來個	-16900
來過	-16901
來風	-16902
例的	-16903
侵入	-16904
保修	-16905
修法	-16906
俯仰	-16907
倒塌	-16908
借屍	-16909
倫斯	-16910
倭馬	-16911
偏下	-16912
偏護	-16913
偵測	-16914
傅顯	-16915
備案	-16916
備用	-16917
傳佈	-16918
傳導	-16919
傳言	-16920
傷亡	-16921
傷殘	-16922
價位	-16923
儒家	-16924
優於	-16925
優美	-16926
充當	-16927
兇手	-16928
光臨	-16929
光芒	-16930
兌現	-16931
兔顧	-16932
入微	-16933
入眼	-16934
內戰	-16935
全城	-16936
全盤	-16937
兩下	-16938
兩全	-16939
兩層	-16940
公示	-16941
公車	-16942
六百	-16943
共贏	-16944
共鳴	-16945
兵種	-16946
其妙	-16947
兼有	-16948
再也	-16949
冥宗	-16950
冰霜	-16951
冷酷	-16952
凡是	-16953
出資	-16954
切切	-16955
切成	-16956
切斷	-16957
初次	-16958
別具	-16959
到時	-16960
到頭	-16961
刺穿	-16962
前列	-16963
前述	-16964
前邊	-16965
剩下	-16966
創設	-16967
劈頭	-16968
劍仙	-16969
力強	-16970
力竭	-16971
加權	-16972
加達	-16973
動彈	-16974
動搖	-16975
勝算	-16976
勝過	-16977
勵磁	-16978
勿念	-16979
包廂	-16980
包頭	-16981
十個	-16982
十多	-16983
千層	-16984
千帆	-16985
卑斯	-16986
協力	-16987
南南	-16988
南地	-16989
卡梅	-16990
卡通	-16991
卡那	-16992
卻說	-16993
厚生	-16994
原廠	-16995
參拜	-16996
又將	-16997
反彈	-16998
反駁	-16999
取的	-17000
受人	-17001
受損	-17002
受託	-17003
口子	-17004
口風	-17005
只見	-17006
召集	-17007
史前	-17008
司徒	-17009
司空	-17010
各處	-17011
合力	-17012
合唱	-17013
合辦	-17014
同儕	-17015
同義	-17016
名思	-17017
名校	-17018
向你	-17019
向她	-17020
向著	-17021
向量	-17022
君的	-17023
吞併	-17024
含糊	-17025
呢個	-17026
周旋	-17027
呼圖	-17028
咆哮	-17029
品德	-17030
哭了	-17031
售賣	-17032
商人	-17033
善盡	-17034
喊道	-17035
喪屍	-17036
喫不	-17037
喫點	-17038
嗬喲	-17039
嘉慶	-17040
嘶吼	-17041
噴頭	-17042
嚴選	-17043
囂張	-17044
四天	-17045
回購	-17046
因其	-17047
圓柱	-17048
圓的	-17049
在下	-17050
在國	-17051
在基	-17052
在白	-17053
在西	-17054
地檢	-17055
地裡	-17056
坐着	-17057
坐著	-17058
型和	-17059
埃爾	-17060
城主	-17061
城巴	-17062
埔心	-17063
基調	-17064
基輔	-17065
堂課	-17066
報社	-17067
場內	-17068
塗抹	-17069
塞西	-17070
境域	-17071
增至	-17072
壁的	-17073
壯年	-17074
外人	-17075
外地	-17076
外型	-17077
外場	-17078
外銷	-17079
多爾	-17080
大吉	-17081
大夏	-17082
大提	-17083
大橋	-17084
大灣	-17085
大生	-17086
大略	-17087
大腸	-17088
大衆	-17089
大衍	-17090
大雨	-17091
天命	-17092
天性	-17093
天邊	-17094
天長	-17095
太守	-17096
太強	-17097
太郎	-17098
太難	-17099
套用	-17100
奢侈	-17101
好啊	-17102
妄動	-17103
妝容	-17104
妨礙	-17105
姻緣	-17106
婚後	-17107
嬰變	-17108
孃的	-17109
子都	-17110
字符	-17111
存續	-17112
學問	-17113
學藝	-17114
它會	-17115
它能	-17116
它被	-17117
安檢	-17118
安納	-17119
宜居	-17120
客的	-17121
室友	-17122
室溫	-17123
宮澤	-17124
害羞	-17125
家事	-17126
家務	-17127
家裏	-17128
察察	-17129
實作	-17130
審視	-17131
審計	-17132
寬容	-17133
寬敞	-17134
寸心	-17135
封城	-17136
射線	-17137
將它	-17138
將對	-17139
將此	-17140
將領	-17141
專有	-17142
對上	-17143
導軌	-17144
導遊	-17145
小異	-17146
小腹	-17147
小芹	-17148
小覷	-17149
少刻	-17150
少見	-17151
尚書	-17152
尚有	-17153
就去	-17154
就地	-17155
就曾	-17156
居中	-17157
居所	-17158
居於	-17159
山君	-17160
山坡	-17161
山大	-17162
崑崙	-17163
工力	-17164
希罕	-17165
希雲	-17166
平和	-17167
年了	-17168
年任	-17169
年份	-17170
年是	-17171
年與	-17172
底參	-17173
底的	-17174
店內	-17175
店裡	-17176
座上	-17177
康乃	-17178
廚師	-17179
廝殺	-17180
廢物	-17181
廢舊	-17182
建交	-17183
建制	-17184
建有	-17185
引致	-17186
弱小	-17187
彩票	-17188
彩繪	-17189
影院	-17190
很長	-17191
律法	-17192
後人	-17193
後被	-17194
後進	-17195
徐浩	-17196
得獎	-17197
徘徊	-17198
御史	-17199
復加	-17200
復燃	-17201
微妙	-17202
德斯	-17203
德爾	-17204
心念	-17205
心目	-17206
心跡	-17207
心跳	-17208
心轉	-17209
必死	-17210
忍者	-17211
快訊	-17212
念念	-17213
忽而	-17214
怒道	-17215
思惟	-17216
急若	-17217
性上	-17218
性愛	-17219
恆久	-17220
恐龍	-17221
恩師	-17222
恩賜	-17223
悟出	-17224
您將	-17225
惠普	-17226
惡性	-17227
想用	-17228
想看	-17229
惶惶	-17230
意向	-17231
感召	-17232
感和	-17233
感測	-17234
愧疚	-17235
慄原	-17236
慎庸	-17237
慣例	-17238
懇求	-17239
應先	-17240
應在	-17241
懸崖	-17242
戈爾	-17243
成龍	-17244
我再	-17245
我從	-17246
我心	-17247
我才	-17248
戒備	-17249
戒指	-17250
或有	-17251
戰術	-17252
戶型	-17253
所欲	-17254
所爲	-17255
所緣	-17256
手無	-17257
才子	-17258
打仗	-17259
打敗	-17260
扶余	-17261
扶持	-17262
批次	-17263
找你	-17264
把關	-17265
抗壓	-17266
抗疫	-17267
抹茶	-17268
押金	-17269
拉伸	-17270
拋出	-17271
拍下	-17272
拘捕	-17273
拜會	-17274
拱手	-17275
指望	-17276
按壓	-17277
挑撥	-17278
捍衛	-17279
掌聲	-17280
掌門	-17281
採光	-17282
接縫	-17283
推測	-17284
推論	-17285
換氣	-17286
揣測	-17287
揭曉	-17288
援手	-17289
搞得	-17290
搞砸	-17291
搶攻	-17292
摸著	-17293
撐起	-17294
擰緊	-17295
擴建	-17296
擺手	-17297
擾動	-17298
支票	-17299
支線	-17300
收受	-17301
改動	-17302
放任	-17303
放慢	-17304
放水	-17305
放開	-17306
政客	-17307
政經	-17308
教改	-17309
教養	-17310
散了	-17311
散佈	-17312
敬請	-17313
文裡	-17314
新創	-17315
新娘	-17316
新春	-17317
新版	-17318
新車	-17319
新都	-17320
新黨	-17321
方圓	-17322
旅居	-17323
旅途	-17324
旋渦	-17325
旗幟	-17326
日均	-17327
日是	-17328
日趨	-17329
早先	-17330
明清	-17331
星光	-17332
映象	-17333
春夏	-17334
春秋	-17335
是三	-17336
是全	-17337
是兩	-17338
是因	-17339
是沒	-17340
時在	-17341
時就	-17342
時髦	-17343
晚年	-17344
普天	-17345
普賢	-17346
景嶺	-17347
智的	-17348
暗瘡	-17349
暴發	-17350
曉軍	-17351
曠世	-17352
曲棍	-17353
更小	-17354
書生	-17355
書畫	-17356
替你	-17357
最不	-17358
月光	-17359
月租	-17360
月紅	-17361
有之	-17362
有位	-17363
有幸	-17364
有我	-17365
有禮	-17366
有靈	-17367
望族	-17368
望月	-17369
朝堂	-17370
期內	-17371
未見	-17372
本案	-17373
本莊	-17374
本金	-17375
東側	-17376
松動	-17377
林家	-17378
林海	-17379
架空	-17380
柏朗	-17381
某天	-17382
柔和	-17383
查探	-17384
查獲	-17385
格林	-17386
格鬥	-17387
栽種	-17388
桂園	-17389
案子	-17390
棺材	-17391
極樂	-17392
極高	-17393
槍械	-17394
樂隊	-17395
樓臺	-17396
標普	-17397
模範	-17398
樹下	-17399
樹的	-17400
機動	-17401
機在	-17402
機緣	-17403
機電	-17404
權重	-17405
歐博	-17406
歡呼	-17407
歡喜	-17408
止的	-17409
正版	-17410
歸咎	-17411
死地	-17412
死灰	-17413
殘忍	-17414
殭屍	-17415
殿內	-17416
毀了	-17417
毅力	-17418
毅然	-17419
民衆	-17420
氣之	-17421
氨酯	-17422
水性	-17423
水晶	-17424
水泵	-17425
水流	-17426
永不	-17427
求學	-17428
汪洋	-17429
決然	-17430
河水	-17431
河畔	-17432
治病	-17433
法子	-17434
法式	-17435
法語	-17436
泡茶	-17437
注視	-17438
洛普	-17439
洛託	-17440
洪水	-17441
洶洶	-17442
活到	-17443
活該	-17444
流光	-17445
流心	-17446
流暢	-17447
流淌	-17448
流經	-17449
流逝	-17450
海灘	-17451
消釋	-17452
液位	-17453
淋漓	-17454
深厚	-17455
深層	-17456
混雜	-17457
清晨	-17458
清真	-17459
減重	-17460
渲染	-17461
渾然	-17462
湖泊	-17463
湧入	-17464
湮滅	-17465
源地	-17466
滕王	-17467
滾動	-17468
演戲	-17469
演示	-17470
漠視	-17471
漢人	-17472
漢族	-17473
漢陽	-17474
澎湃	-17475
濟世	-17476
火神	-17477
為之	-17478
烈火	-17479
烏雲	-17480
無愧	-17481
無毒	-17482
無物	-17483
無瑕	-17484
無緣	-17485
無邊	-17486
焦躁	-17487
煉器	-17488
煙的	-17489
煥文	-17490
照相	-17491
熊熊	-17492
熒光	-17493
熔化	-17494
熟知	-17495
熠熠	-17496
熱線	-17497
爐中	-17498
爭執	-17499
爲你	-17500
爲數	-17501
牀頭	-17502
片機	-17503
版主	-17504
特有	-17505
特許	-17506
牽涉	-17507
狂犬	-17508
獎牌	-17509
獨有	-17510
獼猴	-17511
玉宇	-17512
王冠	-17513
王后	-17514
王族	-17515
珠寶	-17516
班次	-17517
班車	-17518
球會	-17519
環衛	-17520
甚爲	-17521
甜味	-17522
生人	-17523
生化	-17524
甲方	-17525
男方	-17526
畏懼	-17527
畝產	-17528
畫出	-17529
當您	-17530
痠痛	-17531
發話	-17532
百人	-17533
百多	-17534
的七	-17535
的了	-17536
的冰	-17537
的初	-17538
的可	-17539
的回	-17540
的幾	-17541
的怪	-17542
的戰	-17543
的苦	-17544
的茶	-17545
的電	-17546
盎然	-17547
盛年	-17548
盡心	-17549
監獄	-17550
盤中	-17551
盤膝	-17552
盤點	-17553
目下	-17554
直屬	-17555
相力	-17556
相接	-17557
相符	-17558
省市	-17559
看他	-17560
真格	-17561
真龍	-17562
眨了	-17563
着他	-17564
着手	-17565
知覺	-17566
短篇	-17567
短路	-17568
石沉	-17569
石膏	-17570
砂漿	-17571
破鏡	-17572
硃砂	-17573
碰巧	-17574
磁性	-17575
示意	-17576
祈福	-17577
祕寶	-17578
祕法	-17579
神之	-17580
神功	-17581
神庭	-17582
神念	-17583
神靈	-17584
神魂	-17585
禁令	-17586
禁食	-17587
禮儀	-17588
秉賦	-17589
科普	-17590
秦五	-17591
移居	-17592
移轉	-17593
稍早	-17594
稍頃	-17595
種是	-17596
穆迪	-17597
穹廬	-17598
空檔	-17599
穿透	-17600
站是	-17601
章的	-17602
端正	-17603
笑意	-17604
管材	-17605
箭矢	-17606
範例	-17607
簡歷	-17608
籃板	-17609
籌商	-17610
精益	-17611
精練	-17612
系數	-17613
糾結	-17614
紀檢	-17615
約莫	-17616
紅利	-17617
紐帶	-17618
純淨	-17619
純陽	-17620
紙巾	-17621
絕美	-17622
給您	-17623
綠茶	-17624
維繫	-17625
網美	-17626
綿密	-17627
緊固	-17628
線型	-17629
編制	-17630
編寫	-17631
編程	-17632
編製	-17633
緩繳	-17634
縫隙	-17635
總要	-17636
繁多	-17637
繪本	-17638
繼之	-17639
纔可	-17640
纔算	-17641
纖細	-17642
罪的	-17643
美眸	-17644
美股	-17645
美花	-17646
羣人	-17647
義勇	-17648
翻了	-17649
翻新	-17650
老夫	-17651
老虎	-17652
考上	-17653
考妣	-17654
者也	-17655
者為	-17656
而又	-17657
而喻	-17658
而易	-17659
而未	-17660
而至	-17661
而行	-17662
而走	-17663
耐久	-17664
耐煩	-17665
耐熱	-17666
耗盡	-17667
耗費	-17668
耳邊	-17669
聊聊	-17670
聯動	-17671
聲器	-17672
職棒	-17673
聽懂	-17674
肆虐	-17675
肇端	-17676
肝炎	-17677
育苗	-17678
背面	-17679
胸前	-17680
能效	-17681
脾胃	-17682
腹中	-17683
臉龐	-17684
自古	-17685
自得	-17686
自性	-17687
自是	-17688
自立	-17689
自製	-17690
自閉	-17691
至尊	-17692
至此	-17693
致死	-17694
與你	-17695
與天	-17696
興棟	-17697
興盛	-17698
興致	-17699
舊址	-17700
航行	-17701
色素	-17702
芋頭	-17703
苗子	-17704
若雪	-17705
苦心	-17706
苦難	-17707
英尺	-17708
茨基	-17709
茶道	-17710
莉葉	-17711
萊恩	-17712
萎縮	-17713
萬個	-17714
萬象	-17715
葉子	-17716
著他	-17717
著實	-17718
著臉	-17719
蒞臨	-17720
蓄水	-17721
蔬果	-17722
蕭條	-17723
藍圖	-17724
藍天	-17725
藥廠	-17726
蘑菇	-17727
處女	-17728
虛假	-17729
號為	-17730
行止	-17731
術法	-17732
街坊	-17733
表單	-17734
袞袞	-17735
被我	-17736
補給	-17737
裡麵	-17738
製度	-17739
西路	-17740
要先	-17741
要到	-17742
要等	-17743
見此	-17744
規避	-17745
覓食	-17746
親屬	-17747
親王	-17748
觀感	-17749
解數	-17750
解體	-17751
言的	-17752
託着	-17753
詠春	-17754
試探	-17755
試玩	-17756
試題	-17757
說我	-17758
課業	-17759
調控	-17760
調速	-17761
諸位	-17762
謀殺	-17763
謝千	-17764
警報	-17765
譯名	-17766
議案	-17767
護衛	-17768
變差	-17769
讓小	-17770
讚賞	-17771
豈能	-17772
象棋	-17773
貓兒	-17774
負有	-17775
貨架	-17776
貪圖	-17777
買進	-17778
貼合	-17779
資費	-17780
赤色	-17781
赫拉	-17782
赴美	-17783
起司	-17784
起步	-17785
起義	-17786
起頭	-17787
超乎	-17788
超高	-17789
趨向	-17790
跑來	-17791
跟在	-17792
跟着	-17793
跨國	-17794
路旁	-17795
身亡	-17796
身來	-17797
車門	-17798
軍和	-17799
較差	-17800
較比	-17801
輕型	-17802
輕聲	-17803
輕騎	-17804
輪流	-17805
轄區	-17806
轟殺	-17807
轟炸	-17808
轟與	-17809
轟轟	-17810
辯明	-17811
迅猛	-17812
迅疾	-17813
近視	-17814
迫使	-17815
迫切	-17816
迴轉	-17817
迷惑	-17818
退化	-17819
退貨	-17820
送你	-17821
送入	-17822
逃出	-17823
透了	-17824
逐月	-17825
途經	-17826
這下	-17827
這將	-17828
這支	-17829
通俗	-17830
通用	-17831
逛逛	-17832
週六	-17833
逼近	-17834
遇著	-17835
過流	-17836
過硬	-17837
道成	-17838
選了	-17839
選單	-17840
選址	-17841
遺囑	-17842
邁入	-17843
還被	-17844
那也	-17845
那股	-17846
那裏	-17847
那顆	-17848
邦的	-17849
邪帝	-17850
郃同	-17851
郵箱	-17852
都對	-17853
都比	-17854
都看	-17855
都與	-17856
都說	-17857
配息	-17858
配戴	-17859
配製	-17860
酸堿	-17861
酸鈉	-17862
醬油	-17863
里尼	-17864
重創	-17865
重圓	-17866
重度	-17867
重溫	-17868
金斯	-17869
鈔票	-17870
鈴薯	-17871
錄用	-17872
鐵定	-17873
鑽石	-17874
長河	-17875
門生	-17876
閃避	-17877
閉着	-17878
閉門	-17879
開局	-17880
開會	-17881
開走	-17882
閥桿	-17883
關了	-17884
關切	-17885
關卡	-17886
防暴	-17887
防曬	-17888
附上	-17889
附帶	-17890
降伏	-17891
降級	-17892
陣法	-17893
陣的	-17894
除卻	-17895
除外	-17896
除草	-17897
陰沉	-17898
陳安	-17899
陳氏	-17900
陸林	-17901
階層	-17902
隕石	-17903
雜志	-17904
雞肉	-17905
難事	-17906
難受	-17907
雨量	-17908
雲林	-17909
雲漢	-17910
雷鋒	-17911
霞光	-17912
靈水	-17913
青島	-17914
青苔	-17915
青青	-17916
非獨	-17917
面帶	-17918
面部	-17919
鞭策	-17920
鞭長	-17921
順應	-17922
順手	-17923
預埋	-17924
預熱	-17925
領有	-17926
頭條	-17927
頭發	-17928
頸部	-17929
顛倒	-17930
類推	-17931
顧忌	-17932
顫抖	-17933
風之	-17934
風向	-17935
風和	-17936
飛翔	-17937
飛龍	-17938
馬祖	-17939
駭然	-17940
騰騰	-17941
骰子	-17942
體溫	-17943
體能	-17944
體魄	-17945
高清	-17946
高漲	-17947
高考	-17948
高額	-17949
高高	-17950
鬆懈	-17951
魂的	-17952
魔界	-17953
鴨子	-17954
麥冬	-17955
麵條	-17956
麵粉	-17957
黃仁	-17958
黑體	-17959
點出	-17960
點開	-17961
黨和	-17962
鼎力	-17963
龍舟	-17964
And	-17965
INS	-17966
PLC	-17967
PMI	-17968
POS	-17969
PVC	-17970
Vis	-17971
any	-17972
ass	-17973
ata	-17974
igh	-17975
ino	-17976
lat	-17977
low	-17978
ote	-17979
rah	-17980
rev	-17981
rop	-17982
ubl	-17983
▁Dr	-17984
▁HO	-17985
▁II	-17986
▁Sp	-17987
▁TW	-17988
▁Tr	-17989
▁ac	-17990
▁ag	-17991
▁me	-17992
▁su	-17993
▁。“	-17994
▁一位	-17995
▁一旦	-17996
▁不知	-17997
▁不要	-17998
▁不論	-17999
▁人們	-18000
▁今日	-18001
▁令人	-18002
▁但這	-18003
▁來源	-18004
▁內容	-18005
▁加入	-18006
▁印度	-18007
▁商品	-18008
▁國際	-18009
▁在他	-18010
▁奇摩	-18011
▁對此	-18012
▁就連	-18013
▁帳號	-18014
▁年來	-18015
▁廣告	-18016
▁從前	-18017
▁從此	-18018
▁我在	-18019
▁截至	-18020
▁提高	-18021
▁整個	-18022
▁文章	-18023
▁新聞	-18024
▁日至	-18025
▁本書	-18026
▁每一	-18027
▁比如	-18028
▁毫米	-18029
▁活動	-18030
▁然則	-18031
▁當時	-18032
▁石峯	-18033
▁究竟	-18034
▁竟然	-18035
▁終於	-18036
▁結果	-18037
▁網友	-18038
▁老王	-18039
▁聽見	-18040
▁臺中	-18041
▁萬名	-18042
▁蘇平	-18043
▁要求	-18044
▁請問	-18045
▁謝謝	-18046
▁難道	-18047
▁高速	-18048
一定能	-18049
一瞬間	-18050
一般人	-18051
一般是	-18052
上一代	-18053
不久後	-18054
不停地	-18055
不回關	-18056
不好的	-18057
不成林	-18058
不用說	-18059
不相同	-18060
不要讓	-18061
不過在	-18062
不鏽鋼	-18063
並且在	-18064
中之重	-18065
中獲得	-18066
中發現	-18067
主人公	-18068
主機板	-18069
之以恆	-18070
乒乓球	-18071
也不同	-18072
也不用	-18073
也是在	-18074
也是很	-18075
也覺得	-18076
了一位	-18077
了一款	-18078
了一段	-18079
了一股	-18080
了我們	-18081
了自己	-18082
了這個	-18083
二十年	-18084
二零一	-18085
交通部	-18086
人口為	-18087
人可以	-18088
人民的	-18089
人與人	-18090
人體的	-18091
介質的	-18092
他已經	-18093
他想要	-18094
他指出	-18095
他曾經	-18096
他身上	-18097
以減少	-18098
以防止	-18099
企業與	-18100
但後來	-18101
位於該	-18102
低收入	-18103
你不能	-18104
你需要	-18105
來源於	-18106
來處理	-18107
來說是	-18108
來說說	-18109
便可以	-18110
保留了	-18111
信息和	-18112
個工作	-18113
倭馬亞	-18114
傅顯榮	-18115
催化劑	-18116
元左右	-18117
先天性	-18118
先頭的	-18119
兔崽子	-18120
兔顧犬	-18121
六個月	-18122
其主要	-18123
其自然	-18124
再進行	-18125
初天大	-18126
初學者	-18127
前提下	-18128
副主任	-18129
副校長	-18130
副總裁	-18131
化管理	-18132
區域的	-18133
卡梅倫	-18134
印刷機	-18135
危機中	-18136
原生態	-18137
又或者	-18138
反而是	-18139
另一位	-18140
可以被	-18141
可前往	-18142
可實現	-18143
可獲得	-18144
各行各	-18145
合理性	-18146
同花順	-18147
名思義	-18148
命中率	-18149
和一些	-18150
和他們	-18151
和企業	-18152
和城市	-18153
和應用	-18154
和美國	-18155
和處理	-18156
和行為	-18157
咖啡豆	-18158
問題上	-18159
單位的	-18160
回來的	-18161
國際化	-18162
國際足	-18163
在一定	-18164
在不同	-18165
在各個	-18166
在家裡	-18167
在整個	-18168
在處理	-18169
在這兒	-18170
在陽光	-18171
基本的	-18172
堅定的	-18173
報道說	-18174
外國人	-18175
多一點	-18176
大循環	-18177
大流行	-18178
大理石	-18179
大都會	-18180
天主教	-18181
天左右	-18182
天花板	-18183
太極拳	-18184
奇怪的	-18185
女演員	-18186
好幾個	-18187
如果說	-18188
姬如月	-18189
安居樂	-18190
安徽省	-18191
完全的	-18192
客戶端	-18193
家企業	-18194
家樂福	-18195
察察爲	-18196
實名制	-18197
實在的	-18198
實用性	-18199
將全數	-18200
對他們	-18201
對企業	-18202
小時後	-18203
就是了	-18204
就是把	-18205
就這麼	-18206
展現了	-18207
層面的	-18208
山西省	-18209
工業區	-18210
工程中	-18211
幫助下	-18212
年加入	-18213
年夜華	-18214
年推出	-18215
年長者	-18216
幾乎是	-18217
建立起	-18218
建設和	-18219
強調了	-18220
往往會	-18221
很喜歡	-18222
很明顯	-18223
從前的	-18224
德國的	-18225
必不可	-18226
必要時	-18227
怎麼能	-18228
想了解	-18229
想像的	-18230
意思是	-18231
愛爾達	-18232
慢慢地	-18233
成功率	-18234
成就感	-18235
成熟的	-18236
成立的	-18237
成長的	-18238
我們從	-18239
我們都	-18240
我感覺	-18241
我相信	-18242
我開始	-18243
所以當	-18244
所在的	-18245
所處的	-18246
打造出	-18247
抗氧化	-18248
拿出來	-18249
授權的	-18250
控制在	-18251
推薦的	-18252
摸了摸	-18253
撐不住	-18254
改制為	-18255
改編自	-18256
政府在	-18257
效果好	-18258
教育局	-18259
數位券	-18260
文化與	-18261
文森佐	-18262
文章中	-18263
新世界	-18264
新大陸	-18265
新媒體	-18266
新材料	-18267
新生兒	-18268
於中國	-18269
明亮的	-18270
星期六	-18271
是一次	-18272
是使用	-18273
是來自	-18274
是十分	-18275
是無法	-18276
是那種	-18277
普通人	-18278
景灣畔	-18279
更加的	-18280
最主要	-18281
會員國	-18282
會因為	-18283
會產生	-18284
會發生	-18285
會看到	-18286
會議室	-18287
會讓你	-18288
有網友	-18289
服務等	-18290
未央族	-18291
本莊司	-18292
李基妍	-18293
桃園市	-18294
桃花源	-18295
構成了	-18296
正處於	-18297
此時的	-18298
每個月	-18299
比較大	-18300
比較少	-18301
江之鯽	-18302
池底參	-18303
波士頓	-18304
洛託姆	-18305
涉及到	-18306
深圳市	-18307
清晰的	-18308
清真寺	-18309
滕王閣	-18310
演唱會	-18311
澀谷區	-18312
火山噴	-18313
為主的	-18314
為人知	-18315
無止境	-18316
無窮的	-18317
熱交換	-18318
熱門的	-18319
營養師	-18320
爆發後	-18321
狄克森	-18322
獨有的	-18323
王夫人	-18324
理想的	-18325
甚至連	-18326
甜水井	-18327
生產商	-18328
產品和	-18329
當下的	-18330
當他們	-18331
當然是	-18332
病毒的	-18333
痛之症	-18334
發出了	-18335
發生後	-18336
白色的	-18337
的一家	-18338
的一期	-18339
的中間	-18340
的主因	-18341
的事實	-18342
的事態	-18343
的事故	-18344
的任何	-18345
的例子	-18346
的保護	-18347
的光陰	-18348
的功效	-18349
的危險	-18350
的地圖	-18351
的女孩	-18352
的妻子	-18353
的念頭	-18354
的情節	-18355
的意識	-18356
的房間	-18357
的控制	-18358
的教育	-18359
的法律	-18360
的父母	-18361
的理由	-18362
的男人	-18363
的瞭解	-18364
的確是	-18365
的立場	-18366
的系統	-18367
的結構	-18368
的職業	-18369
的認知	-18370
的讀者	-18371
的身形	-18372
的運動	-18373
的首要	-18374
相對應	-18375
看不出	-18376
看樣子	-18377
破碎機	-18378
碧桂園	-18379
碳纖維	-18380
礦泉水	-18381
示範區	-18382
社區的	-18383
突出的	-18384
立交橋	-18385
第一季	-18386
第一期	-18387
第三個	-18388
第二十	-18389
筆記本	-18390
等原因	-18391
等同於	-18392
等國家	-18393
等多個	-18394
等技術	-18395
等活動	-18396
等行業	-18397
等離子	-18398
答案是	-18399
簡單了	-18400
簽署了	-18401
系列賽	-18402
紐西蘭	-18403
純天然	-18404
結構上	-18405
絕對是	-18406
經歷了	-18407
經紀人	-18408
綠色的	-18409
編織袋	-18410
編號為	-18411
羅塞塔	-18412
習慣了	-18413
老爺子	-18414
而產生	-18415
聖誕節	-18416
聚合物	-18417
聚氨酯	-18418
能力強	-18419
能獲得	-18420
腦海中	-18421
腳踏車	-18422
自己有	-18423
自己與	-18424
自然界	-18425
與發展	-18426
舉行了	-18427
莉葉荷	-18428
董仲舒	-18429
葺屋頂	-18430
蔣經國	-18431
蔣萬安	-18432
被害人	-18433
被評為	-18434
裡裡外	-18435
製成的	-18436
要好好	-18437
見到了	-18438
解析度	-18439
解決的	-18440
設計了	-18441
試驗機	-18442
該地的	-18443
說故事	-18444
調整為	-18445
調景嶺	-18446
請各位	-18447
責任感	-18448
賽柏朗	-18449
超能力	-18450
跟自己	-18451
車次為	-18452
較去年	-18453
輕鬆鬆	-18454
輸送機	-18455
轉換為	-18456
迎來了	-18457
近幾年	-18458
迫不及	-18459
追溯到	-18460
這方面	-18461
這是個	-18462
這是我	-18463
這種事	-18464
這麼些	-18465
通常在	-18466
進入了	-18467
進出口	-18468
部門的	-18469
都希望	-18470
都能夠	-18471
都還在	-18472
重大的	-18473
針對性	-18474
鋰離子	-18475
錘頭的	-18476
門外的	-18477
防水層	-18478
隨身的	-18479
雅加達	-18480
集裝箱	-18481
雖然在	-18482
雙軌化	-18483
電影版	-18484
電視上	-18485
非常多	-18486
非營利	-18487
靠得住	-18488
面臨的	-18489
預計將	-18490
領導下	-18491
領導力	-18492
類似於	-18493
風機的	-18494
飛行器	-18495
體內的	-18496
高度的	-18497
高效能	-18498
黨中央	-18499
!!!!	-18500
Sony	-18501
Vive	-18502
aign	-18503
ason	-18504
back	-18505
bert	-18506
eler	-18507
gura	-18508
hans	-18509
inal	-18510
izza	-18511
ovid	-18512
vers	-18513
ward	-18514
▁bet	-18515
▁out	-18516
▁vot	-18517
▁兆美元	-18518
▁李念凡	-18519
▁為了讓	-18520
一目瞭然	-18521
一直沒有	-18522
不分割槽	-18523
不可捉摸	-18524
不復存在	-18525
不必要的	-18526
不斷創新	-18527
主要產品	-18528
九五之尊	-18529
也不可能	-18530
也很重要	-18531
也是一種	-18532
事業單位	-18533
人民法院	-18534
代表性的	-18535
以下幾點	-18536
何嘗不可	-18537
使用方便	-18538
俄羅斯的	-18539
信息安全	-18540
俯仰之間	-18541
借屍還魂	-18542
停了下來	-18543
光纖激光	-18544
全國人民	-18545
其實就是	-18546
具體情況	-18547
初天大禁	-18548
副理事長	-18549
副董事長	-18550
加州大學	-18551
加拿大的	-18552
劫境大能	-18553
南斯拉夫	-18554
參考資料	-18555
可以得到	-18556
可想而知	-18557
同日而語	-18558
呼圖克圖	-18559
和好如初	-18560
四面八方	-18561
因素影響	-18562
國防部長	-18563
國際象棋	-18564
團隊合作	-18565
孔廟文化	-18566
學術倫理	-18567
完完全全	-18568
實際需要	-18569
寧德時代	-18570
專業從事	-18571
專項整治	-18572
小心翼翼	-18573
就是為了	-18574
就會發現	-18575
岡薩雷茲	-18576
川普總統	-18577
工作環境	-18578
工程設計	-18579
工程項目	-18580
帶來更多	-18581
平板電腦	-18582
廣泛用於	-18583
引人注目	-18584
影音廣告	-18585
很多人都	-18586
必須堅持	-18587
情趣娃娃	-18588
所向無敵	-18589
所有人都	-18590
技術創新	-18591
拉丁美洲	-18592
持之以恆	-18593
按捺不住	-18594
捲土重來	-18595
擁有一個	-18596
新冠疫情	-18597
方式進行	-18598
方方面面	-18599
日本藤素	-18600
是世界上	-18601
是否符合	-18602
時至今日	-18603
智慧城市	-18604
更多關於	-18605
書籍介紹	-18606
最高法院	-18607
會決不會	-18608
有關規定	-18609
朝鮮半島	-18610
根本沒有	-18611
森本莊司	-18612
榮譽稱號	-18613
此時此刻	-18614
比較大的	-18615
沒完沒了	-18616
法定年齡	-18617
法律法規	-18618
清華大學	-18619
為什麼要	-18620
為輻鰭魚	-18621
烏克蘭的	-18622
無以復加	-18623
無力迴天	-18624
無綫電視	-18625
環氧樹脂	-18626
生命攸關	-18627
生產設備	-18628
生產過程	-18629
百年奮鬥	-18630
百貨公司	-18631
的人口為	-18632
監督管理	-18633
目前已經	-18634
眾所周知	-18635
知名品牌	-18636
知道自己	-18637
石沉大海	-18638
研究顯示	-18639
破鏡重圓	-18640
社會風氣	-18641
積極推動	-18642
符合國家	-18643
第一階段	-18644
等方面的	-18645
管理中心	-18646
管理人員	-18647
系列產品	-18648
經濟學家	-18649
經濟社會	-18650
經由過程	-18651
維景灣畔	-18652
總部位於	-18653
自由貿易	-18654
舉足輕重	-18655
舉重若輕	-18656
藝術品的	-18657
藝術形式	-18658
血肉之軀	-18659
衛生組織	-18660
製作公司	-18661
課程內容	-18662
讓消費者	-18663
賞心悅目	-18664
迴圈卷積	-18665
這麼多年	-18666
遊戲體驗	-18667
達成共識	-18668
選舉結果	-18669
邏輯思維	-18670
配戴口罩	-18671
醫護人員	-18672
針對性的	-18673
鐵路執行	-18674
防疫措施	-18675
阿爾卑斯	-18676
除此以外	-18677
難以置信	-18678
電子遊戲	-18679
青海大學	-18680
非常方便	-18681
鞭長莫及	-18682
養老保險	-18683
高品質的	-18684
黃花閨女	-18685
黑龍江省	-18686
Smart	-18687
VIDIA	-18688
esign	-18689
obile	-18690
peria	-18691
▁Comp	-18692
▁Merc	-18693
▁Meta	-18694
▁they	-18695
▁林北極星	-18696
▁說到這裡	-18697
之間的關係	-18698
任重而道遠	-18699
佔總人口的	-18700
國家和地區	-18701
市場佔有率	-18702
最重要的是	-18703
為用戶提供	-18704
為輻鰭魚綱	-18705
獨木不成林	-18706
突如其來的	-18707
街道辦事處	-18708
諸如此類的	-18709
足球運動員	-18710
跨媒體製作	-18711
辦公室裝修	-18712
馬克思主義	-18713
高效能運算	-18714
ations	-18715
iphone	-18716
▁Super	-18717
▁going	-18718
▁their	-18719
國際法人資格	-18720
微中子望遠鏡	-18721
新型冠狀病毒	-18722
越來越多的人	-18723
ampaign	-18724
十九屆六中全會	-18725
icrosoft	-18726
▁Silicon	-18727
施特拉森演演算法	-18728
流行疫情指揮中心	-18729
▁political	-18730
中國特色社會主義思想	-18731
新時代中國特色社會主義思想	-18732
?。	-18733
CC	-18734
DO	-18735
De	-18736
EU	-18737
Ex	-18738
GA	-18739
Gr	-18740
HR	-18741
IE	-18742
IM	-18743
RM	-18744
RT	-18745
TB	-18746
TR	-18747
TT	-18748
UN	-18749
We	-18750
ao	-18751
bo	-18752
cl	-18753
gy	-18754
hi	-18755
la	-18756
pm	-18757
px	-18758
uk	-18759
vx	-18760
wo	-18761
zo	-18762
”?	-18763
▁(	-18764
▁・	-18765
▁保	-18766
▁傅	-18767
▁克	-18768
▁凱	-18769
▁呂	-18770
▁囌	-18771
▁固	-18772
▁夫	-18773
▁孔	-18774
▁富	-18775
▁實	-18776
▁幸	-18777
▁康	-18778
▁強	-18779
▁惟	-18780
▁愛	-18781
▁慕	-18782
▁數	-18783
▁果	-18784
▁樓	-18785
▁沐	-18786
▁炎	-18787
▁狂	-18788
▁相	-18789
▁社	-18790
▁空	-18791
▁竟	-18792
▁節	-18793
▁簡	-18794
▁聞	-18795
▁背	-18796
▁舊	-18797
▁苦	-18798
▁蘭	-18799
▁袁	-18800
▁譯	-18801
▁賣	-18802
▁部	-18803
▁鐵	-18804
▁門	-18805
▁隨	-18806
▁餐	-18807
▁餘	-18808
▁魯	-18809
▁黎	-18810
一僵	-18811
一具	-18812
一命	-18813
一壁	-18814
一尊	-18815
一拍	-18816
一指	-18817
一水	-18818
一炁	-18819
一秒	-18820
一空	-18821
一萬	-18822
一輩	-18823
一震	-18824
一霎	-18825
一顫	-18826
七大	-18827
三成	-18828
三章	-18829
三級	-18830
上佳	-18831
上司	-18832
上天	-18833
上學	-18834
上月	-18835
上桌	-18836
上用	-18837
上等	-18838
下位	-18839
下坡	-18840
下發	-18841
下週	-18842
下邊	-18843
不不	-18844
不保	-18845
不修	-18846
不全	-18847
不凡	-18848
不圖	-18849
不急	-18850
不慎	-18851
不掉	-18852
不治	-18853
不爲	-18854
不甚	-18855
不若	-18856
不詳	-18857
不雅	-18858
且有	-18859
丘陵	-18860
並稱	-18861
並肩	-18862
並被	-18863
中一	-18864
中南	-18865
中原	-18866
中將	-18867
中層	-18868
中是	-18869
中樞	-18870
中止	-18871
中興	-18872
中途	-18873
中點	-18874
主事	-18875
主場	-18876
主婦	-18877
主幹	-18878
主廚	-18879
主營	-18880
主編	-18881
主見	-18882
之位	-18883
之士	-18884
之家	-18885
之恩	-18886
之日	-18887
之機	-18888
之火	-18889
之美	-18890
之選	-18891
乏術	-18892
乘勝	-18893
乘積	-18894
九仙	-18895
九輪	-18896
也給	-18897
了些	-18898
了你	-18899
了局	-18900
了約	-18901
了麼	-18902
了點	-18903
事增	-18904
二度	-18905
五官	-18906
五環	-18907
五臟	-18908
亞斯	-18909
交戰	-18910
交接	-18911
交界	-18912
亨利	-18913
京師	-18914
人中	-18915
人品	-18916
人將	-18917
人次	-18918
人等	-18919
人頭	-18920
仍以	-18921
他最	-18922
他趣	-18923
仙子	-18924
以一	-18925
以他	-18926
以作	-18927
仲裁	-18928
企劃	-18929
但要	-18930
位格	-18931
低沉	-18932
低軌	-18933
低迷	-18934
佔用	-18935
何在	-18936
佛光	-18937
作的	-18938
你來	-18939
你再	-18940
你別	-18941
你把	-18942
你都	-18943
佢哋	-18944
併入	-18945
來勢	-18946
來賓	-18947
來路	-18948
依稀	-18949
侵略	-18950
侷限	-18951
便道	-18952
保全	-18953
保定	-18954
信服	-18955
修習	-18956
修讀	-18957
倍增	-18958
倍的	-18959
倒轉	-18960
倒退	-18961
值守	-18962
偉人	-18963
停在	-18964
停電	-18965
偵辦	-18966
傑克	-18967
傳的	-18968
傳真	-18969
傷勢	-18970
僅能	-18971
償還	-18972
元氣	-18973
先導	-18974
先鋒	-18975
光環	-18976
克福	-18977
克萊	-18978
兒了	-18979
兢兢	-18980
入迷	-18981
全境	-18982
全網	-18983
全總	-18984
全資	-18985
全開	-18986
兩成	-18987
兩步	-18988
公頃	-18989
六千	-18990
六章	-18991
共振	-18992
兵馬	-18993
其事	-18994
其會	-18995
其林	-18996
再將	-18997
再現	-18998
再由	-18999
冰島	-19000
冰雪	-19001
冶煉	-19002
冷子	-19003
冷戰	-19004
凈水	-19005
凝結	-19006
凡夫	-19007
出路	-19008
分之	-19009
分其	-19010
分到	-19011
分化	-19012
分工	-19013
分隔	-19014
划算	-19015
初中	-19016
判若	-19017
別是	-19018
別看	-19019
到尾	-19020
到此	-19021
制備	-19022
制勝	-19023
制及	-19024
則於	-19025
削弱	-19026
前三	-19027
前任	-19028
前十	-19029
前瞻	-19030
前端	-19031
前茅	-19032
前鋒	-19033
剖析	-19034
副總	-19035
劇組	-19036
劇集	-19037
劈手	-19038
劍陣	-19039
劑量	-19040
加水	-19041
加薪	-19042
加點	-19043
助於	-19044
動用	-19045
勝出	-19046
勞資	-19047
募集	-19048
包覆	-19049
北側	-19050
匯集	-19051
升空	-19052
半部	-19053
卒然	-19054
南區	-19055
博彩	-19056
卡斯	-19057
卡爾	-19058
卡片	-19059
印染	-19060
危急	-19061
即日	-19062
卻能	-19063
原住	-19064
原是	-19065
原狀	-19066
原貌	-19067
去到	-19068
去吧	-19069
去往	-19070
參訪	-19071
及後	-19072
友人	-19073
反光	-19074
反面	-19075
受阻	-19076
古界	-19077
古裝	-19078
叫道	-19079
可可	-19080
可好	-19081
可施	-19082
可與	-19083
史詩	-19084
右岸	-19085
右邊	-19086
司蕃	-19087
合宜	-19088
同情	-19089
同業	-19090
同為	-19091
名叫	-19092
名將	-19093
名醫	-19094
吏部	-19095
吐露	-19096
向我	-19097
吶喊	-19098
吸菸	-19099
呆板	-19100
周到	-19101
周玄	-19102
味蕾	-19103
呼喊	-19104
咄咄	-19105
和有	-19106
和老	-19107
和西	-19108
咕隆	-19109
咬合	-19110
哈利	-19111
哈拉	-19112
唬人	-19113
商會	-19114
問的	-19115
啦啦	-19116
喚起	-19117
喝了	-19118
喝茶	-19119
喧鬧	-19120
喫素	-19121
單價	-19122
單詞	-19123
單輪	-19124
嗓子	-19125
嘲諷	-19126
嘴脣	-19127
噁心	-19128
器件	-19129
器具	-19130
噩夢	-19131
噴液	-19132
噶爾	-19133
嚇人	-19134
嚴密	-19135
囊括	-19136
四次	-19137
四維	-19138
在今	-19139
在學	-19140
在平	-19141
在書	-19142
在第	-19143
地勢	-19144
地去	-19145
地市	-19146
地線	-19147
地表	-19148
型材	-19149
埔里	-19150
基建	-19151
基材	-19152
基石	-19153
堅實	-19154
堅韌	-19155
堡壘	-19156
塊的	-19157
塊錢	-19158
塞車	-19159
塵青	-19160
增生	-19161
墨之	-19162
墨索	-19163
墻體	-19164
壁虎	-19165
壓倒	-19166
壓頂	-19167
士多	-19168
壯的	-19169
外墻	-19170
外帶	-19171
外語	-19172
外貌	-19173
外貿	-19174
外露	-19175
多層	-19176
多彩	-19177
多方	-19178
多月	-19179
多肉	-19180
多謝	-19181
多邊	-19182
多酚	-19183
多點	-19184
夜景	-19185
大全	-19186
大口	-19187
大可	-19188
大國	-19189
大域	-19190
大士	-19191
大好	-19192
大媽	-19193
大宗	-19194
大意	-19195
大漢	-19196
大漲	-19197
大為	-19198
大豆	-19199
大跌	-19200
大運	-19201
大阪	-19202
大驚	-19203
天候	-19204
天后	-19205
天啓	-19206
天日	-19207
天災	-19208
天稟	-19209
天香	-19210
太久	-19211
太好	-19212
太快	-19213
奏鳴	-19214
奔波	-19215
奔跑	-19216
奧妙	-19217
她對	-19218
她更	-19219
她曾	-19220
她會	-19221
她與	-19222
她要	-19223
好久	-19224
好事	-19225
好人	-19226
好心	-19227
好感	-19228
好色	-19229
妖獸	-19230
妲哥	-19231
妻兒	-19232
始祖	-19233
姐兒	-19234
威廉	-19235
嫁接	-19236
嫁給	-19237
字形	-19238
存取	-19239
存貨	-19240
學長	-19241
孺子	-19242
它與	-19243
守則	-19244
安人	-19245
安信	-19246
安南	-19247
安康	-19248
完備	-19249
官吏	-19250
定在	-19251
定型	-19252
定方	-19253
定於	-19254
定會	-19255
定準	-19256
定論	-19257
定量	-19258
宮殿	-19259
家門	-19260
寄生	-19261
寄送	-19262
寒冬	-19263
實境	-19264
實惠	-19265
寧可	-19266
寧竹	-19267
審慎	-19268
審美	-19269
寫到	-19270
寰球	-19271
寶馬	-19272
寸衷	-19273
封信	-19274
封殺	-19275
封為	-19276
封王	-19277
將士	-19278
將從	-19279
對面	-19280
小可	-19281
小平	-19282
小蘇	-19283
小隊	-19284
少子	-19285
少時	-19286
少有	-19287
少頃	-19288
尖沙	-19289
尖端	-19290
就給	-19291
就近	-19292
尼日	-19293
居士	-19294
居屋	-19295
居高	-19296
屆期	-19297
屋子	-19298
屋面	-19299
峯值	-19300
峽谷	-19301
崇高	-19302
川島	-19303
巡禮	-19304
左側	-19305
差不	-19306
市內	-19307
布料	-19308
希爾	-19309
帕耶	-19310
帖木	-19311
帝倏	-19312
帝豐	-19313
師們	-19314
師大	-19315
席次	-19316
常年	-19317
常溫	-19318
常的	-19319
幫扶	-19320
平坦	-19321
平昔	-19322
年光	-19323
年才	-19324
年級	-19325
年長	-19326
幹勁	-19327
幾句	-19328
幾近	-19329
序列	-19330
底座	-19331
底片	-19332
店主	-19333
庭園	-19334
廣受	-19335
延綿	-19336
建業	-19337
式中	-19338
弓箭	-19339
引來	-19340
張了	-19341
張遠	-19342
強健	-19343
強國	-19344
強顏	-19345
彎腰	-19346
彩虹	-19347
影評	-19348
彼得	-19349
彼時	-19350
往生	-19351
後也	-19352
後又	-19353
得名	-19354
得更	-19355
得要	-19356
得通	-19357
徠卡	-19358
復健	-19359
復古	-19360
循序	-19361
微變	-19362
徵程	-19363
德克	-19364
心來	-19365
心肌	-19366
心腸	-19367
必喫	-19368
必得	-19369
忘懷	-19370
忽地	-19371
怒了	-19372
思念	-19373
急劇	-19374
急的	-19375
急診	-19376
恣意	-19377
恭喜	-19378
情事	-19379
情勢	-19380
想念	-19381
愚蠢	-19382
感導	-19383
感性	-19384
愧弗	-19385
慎重	-19386
慘叫	-19387
憧憬	-19388
懵了	-19389
懵逼	-19390
懷念	-19391
成敗	-19392
我問	-19393
我所	-19394
我聽	-19395
我能	-19396
或將	-19397
截圖	-19398
截然	-19399
戰地	-19400
戰情	-19401
戰機	-19402
戰線	-19403
戶口	-19404
戶籍	-19405
房門	-19406
所幸	-19407
所生	-19408
所致	-19409
所趨	-19410
手感	-19411
手搖	-19412
才具	-19413
才幹	-19414
打動	-19415
打字	-19416
打死	-19417
打氣	-19418
打進	-19419
扭動	-19420
批量	-19421
找了	-19422
承租	-19423
承重	-19424
把持	-19425
抓撓	-19426
投奔	-19427
投射	-19428
投稿	-19429
抖音	-19430
抗原	-19431
抗日	-19432
披薩	-19433
抵擋	-19434
拆解	-19435
拉子	-19436
拉手	-19437
拉開	-19438
拍拍	-19439
拔擢	-19440
拖着	-19441
拖累	-19442
拿捏	-19443
拿走	-19444
指尖	-19445
捷報	-19446
掌櫃	-19447
排在	-19448
排氣	-19449
掛牌	-19450
掠奪	-19451
接下	-19452
接軌	-19453
推文	-19454
推算	-19455
掩護	-19456
掩飾	-19457
描寫	-19458
提拔	-19459
提振	-19460
插件	-19461
插畫	-19462
換到	-19463
握着	-19464
揮了	-19465
搶救	-19466
摘下	-19467
摩西	-19468
撤出	-19469
撥打	-19470
撥雲	-19471
撿到	-19472
擁擠	-19473
擊破	-19474
擠出	-19475
擡頭	-19476
擡高	-19477
擴音	-19478
擺了	-19479
擾亂	-19480
攀上	-19481
支承	-19482
收緊	-19483
改寫	-19484
改版	-19485
放寬	-19486
放行	-19487
故名	-19488
敏惠	-19489
救出	-19490
救星	-19491
救贖	-19492
敘事	-19493
教他	-19494
教研	-19495
教義	-19496
敬畏	-19497
敵衆	-19498
文具	-19499
文書	-19500
料斗	-19501
斟酌	-19502
斬斷	-19503
斯克	-19504
新書	-19505
新界	-19506
新老	-19507
斷絕	-19508
方始	-19509
方能	-19510
施展	-19511
施捨	-19512
施政	-19513
旗袍	-19514
日和	-19515
日夜	-19516
日獲	-19517
日語	-19518
日遊	-19519
旨意	-19520
明知	-19521
明鑫	-19522
昔時	-19523
星力	-19524
星河	-19525
是人	-19526
是做	-19527
是分	-19528
是吧	-19529
是和	-19530
是極	-19531
是該	-19532
是道	-19533
時效	-19534
晚期	-19535
晚裝	-19536
普勒	-19537
普拉	-19538
景緻	-19539
晴天	-19540
暗暗	-19541
暴雨	-19542
曝露	-19543
曲折	-19544
曲的	-19545
更像	-19546
更可	-19547
更在	-19548
更被	-19549
更難	-19550
書時	-19551
最美	-19552
會很	-19553
會用	-19554
會神	-19555
會給	-19556
有志	-19557
有數	-19558
有此	-19559
朗誦	-19560
望去	-19561
朝天	-19562
朝野	-19563
未免	-19564
末了	-19565
本件	-19566
本島	-19567
本王	-19568
本當	-19569
束縛	-19570
杯子	-19571
東吳	-19572
東邊	-19573
東野	-19574
林中	-19575
林立	-19576
林裕	-19577
枯萎	-19578
染色	-19579
查驗	-19580
格調	-19581
條第	-19582
棕色	-19583
植入	-19584
極佳	-19585
極有	-19586
概要	-19587
概述	-19588
樊籠	-19589
樵夫	-19590
樹上	-19591
機殼	-19592
機要	-19593
次日	-19594
次長	-19595
正宗	-19596
正法	-19597
正統	-19598
此番	-19599
武將	-19600
武朝	-19601
歲了	-19602
歷久	-19603
歷代	-19604
歷時	-19605
歸正	-19606
歸納	-19607
死傷	-19608
死於	-19609
殘餘	-19610
殘骸	-19611
殷念	-19612
殿堂	-19613
每坪	-19614
每秒	-19615
比比	-19616
毛細	-19617
毫釐	-19618
民力	-19619
氣派	-19620
氣運	-19621
水利	-19622
求你	-19623
求的	-19624
污垢	-19625
污穢	-19626
汲取	-19627
決斷	-19628
決計	-19629
沉寂	-19630
沉迷	-19631
沒事	-19632
沖刷	-19633
沮喪	-19634
沾邊	-19635
法例	-19636
法學	-19637
法寶	-19638
法特	-19639
波斯	-19640
泳裝	-19641
泵站	-19642
洋溢	-19643
洋蔥	-19644
洗砂	-19645
洛伊	-19646
洛磯	-19647
活佛	-19648
浩特	-19649
浮泛	-19650
海報	-19651
海豚	-19652
消弭	-19653
消散	-19654
淨利	-19655
深海	-19656
深邃	-19657
清代	-19658
清灰	-19659
清邁	-19660
減壓	-19661
渦流	-19662
測算	-19663
港人	-19664
港口	-19665
湖中	-19666
湧出	-19667
準時	-19668
準的	-19669
溢價	-19670
溪陽	-19671
溶性	-19672
滅亡	-19673
滅門	-19674
滑動	-19675
滿腔	-19676
漂白	-19677
漏斗	-19678
演進	-19679
漢典	-19680
漢江	-19681
漫步	-19682
漳州	-19683
澆注	-19684
澎湖	-19685
澤民	-19686
激昂	-19687
濕熱	-19688
濕疹	-19689
灌輸	-19690
灑灑	-19691
火中	-19692
炮彈	-19693
為要	-19694
為該	-19695
焊絲	-19696
無二	-19697
無怪	-19698
無油	-19699
無涯	-19700
無神	-19701
無阻	-19702
煉丹	-19703
煙燻	-19704
煙霧	-19705
照射	-19706
照料	-19707
照著	-19708
照面	-19709
熟慮	-19710
熱能	-19711
爆裂	-19712
爐的	-19713
爭吵	-19714
爭鬥	-19715
父老	-19716
牙科	-19717
特麼	-19718
犯了	-19719
狀元	-19720
狂妄	-19721
猛烈	-19722
猝然	-19723
獎品	-19724
獨一	-19725
獨佔	-19726
獨行	-19727
獲頒	-19728
玄冥	-19729
王儲	-19730
王宮	-19731
王家	-19732
王座	-19733
王氏	-19734
玩笑	-19735
玲瓏	-19736
現為	-19737
現貨	-19738
球衣	-19739
理學	-19740
瑜珈	-19741
璀璨	-19742
環抱	-19743
環狀	-19744
瓦拉	-19745
甄選	-19746
甘草	-19747
生根	-19748
生菌	-19749
生薑	-19750
生輝	-19751
生銹	-19752
生靈	-19753
生養	-19754
産品	-19755
甭管	-19756
田地	-19757
畫畫	-19758
畫龍	-19759
異動	-19760
異己	-19761
當個	-19762
當腰	-19763
當面	-19764
疏散	-19765
疙瘩	-19766
疲憊	-19767
瘦肉	-19768
發揚	-19769
發散	-19770
發給	-19771
白皙	-19772
白蟻	-19773
百事	-19774
百倍	-19775
百計	-19776
的劉	-19777
的差	-19778
的日	-19779
的木	-19780
的李	-19781
的細	-19782
的聽	-19783
的越	-19784
的龍	-19785
皆以	-19786
皇儲	-19787
皇宮	-19788
皇朝	-19789
皮囊	-19790
皮的	-19791
盡是	-19792
盡致	-19793
監製	-19794
盤查	-19795
盧秀	-19796
盲目	-19797
直升	-19798
直管	-19799
直覺	-19800
相覷	-19801
相識	-19802
相通	-19803
看成	-19804
真神	-19805
眯了	-19806
眸光	-19807
眺望	-19808
眼了	-19809
眼科	-19810
着這	-19811
着頭	-19812
督導	-19813
矛頭	-19814
研讀	-19815
破口	-19816
硼酸	-19817
碩果	-19818
碰碰	-19819
磁盤	-19820
磁鐵	-19821
神州	-19822
神聖	-19823
神速	-19824
祭司	-19825
福祉	-19826
禮包	-19827
秀文	-19828
秀秀	-19829
私自	-19830
秋季	-19831
科夫	-19832
科幻	-19833
科長	-19834
租借	-19835
租用	-19836
移至	-19837
稍爲	-19838
稱其	-19839
稱是	-19840
空曠	-19841
空空	-19842
突擊	-19843
突起	-19844
窗外	-19845
立志	-19846
竭誠	-19847
端點	-19848
竹林	-19849
笑話	-19850
第十	-19851
笹鳴	-19852
筆電	-19853
等效	-19854
等職	-19855
管會	-19856
節流	-19857
簡陋	-19858
籌辦	-19859
米歇	-19860
米粉	-19861
米蘭	-19862
粗略	-19863
精通	-19864
紀元	-19865
紅光	-19866
紅麴	-19867
純屬	-19868
索斯	-19869
紹興	-19870
終了	-19871
終到	-19872
終末	-19873
結垢	-19874
結帳	-19875
綁架	-19876
綠地	-19877
維權	-19878
網域	-19879
編組	-19880
縮回	-19881
縮減	-19882
縷縷	-19883
繁體	-19884
繞過	-19885
纔對	-19886
缺額	-19887
羊角	-19888
美圓	-19889
美學	-19890
羣星	-19891
羣衆	-19892
羨魚	-19893
義的	-19894
翩翩	-19895
翻炒	-19896
翼而	-19897
老了	-19898
老家	-19899
老爸	-19900
考查	-19901
者是	-19902
而自	-19903
而那	-19904
耳熟	-19905
耳鳴	-19906
聘任	-19907
聘用	-19908
聚餐	-19909
聲名	-19910
聽的	-19911
聽眾	-19912
聽着	-19913
肩上	-19914
肩負	-19915
胃氣	-19916
背影	-19917
胎動	-19918
胚胎	-19919
胸口	-19920
脫硫	-19921
脫節	-19922
腦子	-19923
腳本	-19924
膚淺	-19925
膚色	-19926
膠囊	-19927
自帶	-19928
自訂	-19929
臭味	-19930
至尾	-19931
致於	-19932
致辭	-19933
與那	-19934
興仁	-19935
舉手	-19936
舉證	-19937
舞者	-19938
船隻	-19939
良種	-19940
芝麻	-19941
花崗	-19942
花朵	-19943
花蛤	-19944
花開	-19945
英德	-19946
茶油	-19947
草本	-19948
莉亞	-19949
莫非	-19950
華德	-19951
菲爾	-19952
萬狀	-19953
萬靈	-19954
落到	-19955
著有	-19956
著眼	-19957
著重	-19958
蒸氣	-19959
薄熙	-19960
藍田	-19961
藥材	-19962
藥業	-19963
藥的	-19964
蘆洲	-19965
蘇家	-19966
處方	-19967
虛弱	-19968
螞蟻	-19969
螽斯	-19970
血型	-19971
血糖	-19972
衆望	-19973
衆生	-19974
衆目	-19975
行在	-19976
行爲	-19977
行禮	-19978
行者	-19979
街機	-19980
衛視	-19981
衝上	-19982
表的	-19983
表皮	-19984
被控	-19985
被殺	-19986
補救	-19987
裝載	-19988
製片	-19989
襯墊	-19990
西涼	-19991
西站	-19992
要找	-19993
要與	-19994
見其	-19995
見效	-19996
見識	-19997
視窗	-19998
親人	-19999
親情	-20000
觀覽	-20001
角質	-20002
解開	-20003
言外	-20004
言談	-20005
記述	-20006
訪客	-20007
許久	-20008
訴說	-20009
試了	-20010
詭異	-20011
話語	-20012
詳盡	-20013
誘發	-20014
語法	-20015
誠心	-20016
調幹	-20017
調養	-20018
請他	-20019
講的	-20020
警衛	-20021
議論	-20022
變幻	-20023
變量	-20024
讚歎	-20025
豐盛	-20026
財力	-20027
財會	-20028
財物	-20029
財閥	-20030
貴霜	-20031
賊王	-20032
賓士	-20033
賓客	-20034
賣給	-20035
賦有	-20036
質押	-20037
賬號	-20038
購票	-20039
賽後	-20040
賽程	-20041
贊成	-20042
贖罪	-20043
赤縣	-20044
走完	-20045
走秀	-20046
走走	-20047
趁早	-20048
趁機	-20049
超導	-20050
超等	-20051
趕忙	-20052
跑的	-20053
跑車	-20054
跟上	-20055
跨界	-20056
路中	-20057
路了	-20058
路二	-20059
踏進	-20060
踴躍	-20061
蹤影	-20062
蹤跡	-20063
身段	-20064
身漢	-20065
身躰	-20066
躬行	-20067
躬身	-20068
躲在	-20069
車牀	-20070
軟的	-20071
載荷	-20072
輕視	-20073
輛車	-20074
輩出	-20075
轉世	-20076
轉而	-20077
轉頭	-20078
轟鳴	-20079
辣的	-20080
辯護	-20081
農技	-20082
迅即	-20083
迎刃	-20084
近半	-20085
返鄉	-20086
迪爾	-20087
迴應	-20088
迴路	-20089
退房	-20090
送至	-20091
逆向	-20092
這幫	-20093
這把	-20094
這根	-20095
這老	-20096
這道	-20097
通向	-20098
通告	-20099
通盤	-20100
造勢	-20101
造景	-20102
連係	-20103
進食	-20104
過世	-20105
過時	-20106
道境	-20107
道家	-20108
遞給	-20109
遠古	-20110
遠逝	-20111
遮蓋	-20112
遷至	-20113
選中	-20114
選的	-20115
遺跡	-20116
還挺	-20117
邊沿	-20118
那可	-20119
那塊	-20120
郊區	-20121
郎中	-20122
部和	-20123
部曲	-20124
都得	-20125
都快	-20126
都把	-20127
都用	-20128
配以	-20129
酒駕	-20130
酵素	-20131
酸甜	-20132
酸鹽	-20133
醒了	-20134
醫保	-20135
里的	-20136
重塑	-20137
重生	-20138
重置	-20139
野心	-20140
野手	-20141
野蠻	-20142
野餐	-20143
金獎	-20144
金的	-20145
金鋒	-20146
鉆井	-20147
鉆頭	-20148
銀牌	-20149
銀髮	-20150
錘頭	-20151
錙銖	-20152
錢了	-20153
鎮區	-20154
鏡像	-20155
鑒別	-20156
鑲嵌	-20157
長了	-20158
長刀	-20159
長效	-20160
門主	-20161
門是	-20162
閃耀	-20163
閉塞	-20164
開刀	-20165
開山	-20166
開戰	-20167
開火	-20168
開賣	-20169
關上	-20170
關押	-20171
防偽	-20172
防務	-20173
防滑	-20174
阻塞	-20175
阿姨	-20176
阿布	-20177
阿莫	-20178
陳時	-20179
陵山	-20180
陸上	-20181
陽神	-20182
隔年	-20183
隨心	-20184
雄性	-20185
雙層	-20186
雙腳	-20187
雙贏	-20188
雜亂	-20189
離場	-20190
離家	-20191
離間	-20192
難支	-20193
難的	-20194
雪櫃	-20195
零時	-20196
雷恩	-20197
電閃	-20198
霸天	-20199
靈芝	-20200
青蛙	-20201
青雉	-20202
青雲	-20203
靜態	-20204
靜音	-20205
非但	-20206
面世	-20207
面料	-20208
面面	-20209
音效	-20210
響聲	-20211
頁的	-20212
頂多	-20213
頂層	-20214
頂峯	-20215
預賽	-20216
頗為	-20217
領隊	-20218
頭暈	-20219
頭疼	-20220
頭銜	-20221
頭鬼	-20222
風潮	-20223
[...]
